{
  "vocab": {
    "\n": 0,
    " ": 1,
    "!": 2,
    "$": 3,
    "&": 4,
    "'": 5,
    ",": 6,
    "-": 7,
    ".": 8,
    "3": 9,
    ":": 10,
    ";": 11,
    "?": 12,
    "A": 13,
    "B": 14,
    "C": 15,
    "D": 16,
    "E": 17,
    "F": 18,
    "G": 19,
    "H": 20,
    "I": 21,
    "J": 22,
    "K": 23,
    "L": 24,
    "M": 25,
    "N": 26,
    "O": 27,
    "P": 28,
    "Q": 29,
    "R": 30,
    "S": 31,
    "T": 32,
    "U": 33,
    "V": 34,
    "W": 35,
    "X": 36,
    "Y": 37,
    "Z": 38,
    "a": 39,
    "b": 40,
    "c": 41,
    "d": 42,
    "e": 43,
    "f": 44,
    "g": 45,
    "h": 46,
    "i": 47,
    "j": 48,
    "k": 49,
    "l": 50,
    "m": 51,
    "n": 52,
    "o": 53,
    "p": 54,
    "q": 55,
    "r": 56,
    "s": 57,
    "t": 58,
    "u": 59,
    "v": 60,
    "w": 61,
    "x": 62,
    "y": 63,
    "z": 64,
    "in": 65,
    "er": 66,
    "es": 67,
    "ed": 68,
    " s": 69,
    "en": 70,
    "ing": 71,
    "on": 72,
    "ar": 73,
    " c": 74,
    "re": 75,
    "an": 76,
    " p": 77,
    "ou": 78,
    "or": 79,
    "at": 80,
    " d": 81,
    "is": 82,
    " b": 83,
    "it": 84,
    "al": 85,
    " f": 86,
    "le": 87,
    " t": 88,
    " m": 89,
    "el": 90,
    "ro": 91,
    "un": 92,
    "st": 93,
    " w": 94,
    " h": 95,
    " a": 96,
    "ly": 97,
    "ent": 98,
    "ce": 99,
    "ra": 100,
    "ri": 101,
    "ch": 102,
    "et": 103,
    "il": 104,
    "est": 105,
    "ion": 106,
    "ess": 107,
    " g": 108,
    "ur": 109,
    "om": 110,
    " l": 111,
    "ol": 112,
    " un": 113,
    "th": 114,
    "ic": 115,
    "ers": 116,
    "ow": 117,
    "as": 118,
    " st": 119,
    "gh": 120,
    "ul": 121,
    " re": 122,
    "us": 123,
    "em": 124,
    "ct": 125,
    "ad": 126,
    "am": 127,
    "id": 128,
    " in": 129,
    "ck": 130,
    "ir": 131,
    "ous": 132,
    "ve": 133,
    " con": 134,
    "im": 135,
    "ut": 136,
    " e": 137,
    "ver": 138,
    "ter": 139,
    "ts": 140,
    "ain": 141,
    " n": 142,
    "our": 143,
    " r": 144,
    "ds": 145,
    "pp": 146,
    "oo": 147,
    "qu": 148,
    "ear": 149,
    "um": 150,
    " sh": 151,
    " v": 152,
    " dis": 153,
    "ag": 154,
    "ast": 155,
    "ay": 156,
    "oun": 157,
    "her": 158,
    "os": 159,
    "ab": 160,
    "ak": 161,
    "ght": 162,
    " ch": 163,
    "ff": 164,
    "ot": 165,
    "end": 166,
    " o": 167,
    "ant": 168,
    " th": 169,
    "ard": 170,
    " de": 171,
    " pro": 172,
    "ate": 173,
    "ig": 174,
    "ish": 175,
    "and": 176,
    "ap": 177,
    "ell": 178,
    "ation": 179,
    "ful": 180,
    " sp": 181,
    "ies": 182,
    "ort": 183,
    "all": 184,
    "ru": 185,
    "iv": 186,
    "ill": 187,
    "ep": 188,
    " be": 189,
    "ity": 190,
    " su": 191,
    "ors": 192,
    " C": 193,
    " S": 194,
    "ted": 195,
    " com": 196,
    "der": 197,
    "ge": 198,
    "ness": 199,
    "av": 200,
    "ect": 201,
    "ip": 202,
    " k": 203,
    "ence": 204,
    "ist": 205,
    " ex": 206,
    " B": 207,
    "ore": 208,
    "op": 209,
    "ure": 210,
    "eth": 211,
    " A": 212,
    "row": 213,
    "if": 214,
    "ath": 215,
    "la": 216,
    "ew": 217,
    "ance": 218,
    "sh": 219,
    "ely": 220,
    "ry": 221,
    "ens": 222,
    "ight": 223,
    "able": 224,
    "old": 225,
    " P": 226,
    " M": 227,
    " pr": 228,
    "pt": 229,
    "ec": 230,
    " H": 231,
    "cc": 232,
    "per": 233,
    "art": 234,
    "ud": 235,
    "ble": 236,
    "lo": 237,
    " j": 238,
    "ang": 239,
    "less": 240,
    "ie": 241,
    "ive": 242,
    "ment": 243,
    "ious": 244,
    " T": 245,
    "ost": 246,
    " im": 247,
    " sc": 248,
    " en": 249,
    "ust": 250,
    "ong": 251,
    "ine": 252,
    "se": 253,
    "ings": 254,
    "led": 255,
    "ire": 256,
    "od": 257,
    " W": 258,
    " le": 259,
    "orn": 260,
    "ks": 261,
    " ad": 262,
    " wh": 263,
    "ling": 264,
    "ign": 265,
    "ind": 266,
    "ting": 267,
    " sw": 268,
    "ans": 269,
    " se": 270,
    " ro": 271,
    " ra": 272,
    "ber": 273,
    " fl": 274,
    " qu": 275,
    "ick": 276,
    "aw": 277,
    "ith": 278,
    "pl": 279,
    " bl": 280,
    "ach": 281,
    " ab": 282,
    "ail": 283,
    "ise": 284,
    " L": 285,
    "igh": 286,
    "ke": 287,
    "Un": 288,
    "ied": 289,
    "ass": 290,
    "ef": 291,
    "ond": 292,
    "ood": 293,
    "erv": 294,
    "ss": 295,
    "ac": 296,
    " for": 297,
    "ice": 298,
    "tain": 299,
    " pl": 300,
    "ty": 301,
    " co": 302,
    " F": 303,
    "age": 304,
    "for": 305,
    "anc": 306,
    "ons": 307,
    " ri": 308,
    " per": 309,
    "ound": 310,
    "man": 311,
    "les": 312,
    " he": 313,
    "ue": 314,
    " app": 315,
    "ions": 316,
    " D": 317,
    " mis": 318,
    "com": 319,
    "ough": 320,
    "eed": 321,
    " R": 322,
    "ier": 323,
    "pos": 324,
    "ack": 325,
    " y": 326,
    "own": 327,
    "ey": 328,
    " G": 329,
    " ar": 330,
    "ink": 331,
    " pre": 332,
    "In": 333,
    "out": 334,
    "ress": 335,
    "urn": 336,
    "ub": 337,
    "Th": 338,
    "ite": 339,
    " des": 340,
    "li": 341,
    "oul": 342,
    "ile": 343,
    "ven": 344,
    " cont": 345,
    " al": 346,
    " lo": 347,
    "ours": 348,
    "St": 349,
    "att": 350,
    "iss": 351,
    "ary": 352,
    "ved": 353,
    "ial": 354,
    "ves": 355,
    "are": 356,
    "ents": 357,
    "ran": 358,
    "ee": 359,
    "one": 360,
    " so": 361,
    "ont": 362,
    " cl": 363,
    "emb": 364,
    "reat": 365,
    "au": 366,
    "ild": 367,
    " kn": 368,
    "its": 369,
    "ft": 370,
    " mo": 371,
    "here": 372,
    " imp": 373,
    " am": 374,
    " mar": 375,
    "uck": 376,
    " E": 377,
    "ther": 378,
    "ord": 379,
    "ase": 380,
    "ake": 381,
    " sl": 382,
    "oin": 383,
    "be": 384,
    "io": 385,
    " acc": 386,
    "ced": 387,
    "ide": 388,
    " tr": 389,
    "up": 390,
    "ush": 391,
    "cl": 392,
    "ret": 393,
    "red": 394,
    " V": 395,
    "air": 396,
    "ged": 397,
    " we": 398,
    " res": 399,
    " gra": 400,
    "ins": 401,
    "urs": 402,
    "arn": 403,
    "atch": 404,
    " cons": 405,
    " conf": 406,
    "iz": 407,
    "ci": 408,
    "ome": 409,
    "ition": 410,
    "bs": 411,
    " rem": 412,
    "ame": 413,
    " J": 414,
    "over": 415,
    "ward": 416,
    "oy": 417,
    "ph": 418,
    "pe": 419,
    "Wh": 420,
    "eld": 421,
    " sm": 422,
    "low": 423,
    "eet": 424,
    "gg": 425,
    "pro": 426,
    "ict": 427,
    "king": 428,
    " coun": 429,
    "orth": 430,
    "men": 431,
    "ars": 432,
    "Sh": 433,
    "AR": 434,
    "eep": 435,
    " tra": 436,
    "ery": 437,
    " bre": 438,
    " do": 439,
    "ays": 440,
    "ple": 441,
    " car": 442,
    "ily": 443,
    " inf": 444,
    "oe": 445,
    "aid": 446,
    "eat": 447,
    "oub": 448,
    " N": 449,
    "af": 450,
    "ER": 451,
    "Pro": 452,
    "ix": 453,
    "ray": 454,
    " disc": 455,
    "ces": 456,
    "ates": 457,
    " tri": 458,
    "ction": 459,
    "ull": 460,
    "ock": 461,
    "res": 462,
    "ows": 463,
    "ench": 464,
    "raw": 465,
    "ised": 466,
    " pri": 467,
    "ould": 468,
    " comm": 469,
    "atter": 470,
    "iness": 471,
    "ends": 472,
    " par": 473,
    "rown": 474,
    "els": 475,
    "ool": 476,
    "arm": 477,
    "als": 478,
    "app": 479,
    " uns": 480,
    "ere": 481,
    "ann": 482,
    "he": 483,
    "EN": 484,
    " str": 485,
    " li": 486,
    "ook": 487,
    " ass": 488,
    "ute": 489,
    " pres": 490,
    " def": 491,
    "de": 492,
    "ark": 493,
    "az": 494,
    " wr": 495,
    " inter": 496,
    " dist": 497,
    "OR": 498,
    "pect": 499,
    "oss": 500,
    "wh": 501,
    "elf": 502,
    "read": 503,
    "ering": 504,
    "Re": 505,
    "ally": 506,
    "use": 507,
    "vers": 508,
    " comp": 509,
    "ouch": 510,
    "ues": 511,
    "ash": 512,
    " ent": 513,
    "ree": 514,
    "ank": 515,
    "umb": 516,
    "vo": 517,
    "ius": 518,
    "ave": 519,
    " gu": 520,
    "vent": 521,
    " rep": 522,
    "ats": 523,
    " att": 524,
    "ale": 525,
    " off": 526,
    " aff": 527,
    "ade": 528,
    " gr": 529,
    "og": 530,
    "ides": 531,
    "ets": 532,
    " over": 533,
    "ears": 534,
    "ued": 535,
    "ges": 536,
    "ined": 537,
    "ured": 538,
    "ian": 539,
    " sur": 540,
    " no": 541,
    "US": 542,
    " int": 543,
    " Th": 544,
    " ne": 545,
    "ose": 546,
    "med": 547,
    "ury": 548,
    " del": 549,
    "act": 550,
    " inst": 551,
    "aun": 552,
    " bra": 553,
    "cy": 554,
    "itch": 555,
    "ring": 556,
    "rust": 557,
    " bro": 558,
    "entle": 559,
    "right": 560,
    " beg": 561,
    "ended": 562,
    "emp": 563,
    "En": 564,
    " rec": 565,
    "ern": 566,
    " me": 567,
    " cur": 568,
    "ither": 569,
    "of": 570,
    " or": 571,
    "land": 572,
    " gl": 573,
    " stri": 574,
    " mer": 575,
    "Com": 576,
    "ia": 577,
    "ex": 578,
    "ities": 579,
    "cks": 580,
    "ited": 581,
    " supp": 582,
    " unf": 583,
    "ceed": 584,
    " hear": 585,
    "ather": 586,
    " us": 587,
    " po": 588,
    " ob": 589,
    "ory": 590,
    " I": 591,
    "ung": 592,
    " ag": 593,
    "ations": 594,
    " cra": 595,
    " pur": 596,
    " fe": 597,
    "ps": 598,
    " inc": 599,
    "ace": 600,
    " sub": 601,
    " dep": 602,
    "ower": 603,
    "ought": 604,
    "ult": 605,
    "ertain": 606,
    "ys": 607,
    "ards": 608,
    " O": 609,
    " bo": 610,
    " bu": 611,
    "ient": 612,
    "lect": 613,
    "IO": 614,
    "AN": 615,
    " tw": 616,
    "sp": 617,
    "aint": 618,
    "ving": 619,
    "ett": 620,
    "ads": 621,
    "fully": 622,
    "empt": 623,
    "eness": 624,
    "allow": 625,
    " unc": 626,
    "ject": 627,
    "oud": 628,
    " rest": 629,
    " ind": 630,
    "Con": 631,
    " cor": 632,
    " out": 633,
    " fore": 634,
    "bb": 635,
    "oes": 636,
    " cap": 637,
    "ments": 638,
    "IN": 639,
    "ok": 640,
    "ries": 641,
    "ated": 642,
    "iol": 643,
    "een": 644,
    "fort": 645,
    "no": 646,
    "ased": 647,
    "eless": 648,
    "rem": 649,
    "ried": 650,
    "ired": 651,
    "ourn": 652,
    "ures": 653,
    "ips": 654,
    "eal": 655,
    "ament": 656,
    "Ad": 657,
    "ll": 658,
    " pe": 659,
    "ne": 660,
    " but": 661,
    " part": 662,
    "und": 663,
    "ffer": 664,
    "esp": 665,
    "ount": 666,
    "ating": 667,
    "ms": 668,
    "akes": 669,
    "ished": 670,
    " bel": 671,
    " min": 672,
    "ister": 673,
    "ience": 674,
    "sc": 675,
    " her": 676,
    "ords": 677,
    "aking": 678,
    "ands": 679,
    "rew": 680,
    "ains": 681,
    "form": 682,
    "ared": 683,
    " exp": 684,
    "rows": 685,
    " prof": 686,
    "aster": 687,
    "une": 688,
    " gri": 689,
    "iest": 690,
    " An": 691,
    "illing": 692,
    "ison": 693,
    " under": 694,
    "ug": 695,
    "oura": 696,
    "ceiv": 697,
    "cept": 698,
    " div": 699,
    " unw": 700,
    "int": 701,
    " unb": 702,
    " mist": 703,
    "ement": 704,
    "eem": 705,
    "ield": 706,
    "ices": 707,
    "icious": 708,
    " unt": 709,
    "ants": 710,
    "lack": 711,
    " ple": 712,
    " dev": 713,
    "alk": 714,
    "An": 715,
    "For": 716,
    "ump": 717,
    "eter": 718,
    "mer": 719,
    " man": 720,
    "ered": 721,
    "ove": 722,
    " bet": 723,
    " emb": 724,
    " clo": 725,
    "den": 726,
    "awn": 727,
    "iet": 728,
    "pr": 729,
    " col": 730,
    " che": 731,
    "ler": 732,
    "Dis": 733,
    " mon": 734,
    "ided": 735,
    "Sc": 736,
    "ream": 737,
    "ending": 738,
    "arl": 739,
    "ping": 740,
    "ining": 741,
    "fe": 742,
    "aff": 743,
    "kes": 744,
    "onest": 745,
    " wor": 746,
    " char": 747,
    "ift": 748,
    "used": 749,
    "itt": 750,
    "iver": 751,
    "ime": 752,
    " Wh": 753,
    "oth": 754,
    "ener": 755,
    "ouse": 756,
    "by": 757,
    "sol": 758,
    "eng": 759,
    "ying": 760,
    "vol": 761,
    " prom": 762,
    " beh": 763,
    "ollow": 764,
    "hip": 765,
    "Be": 766,
    " br": 767,
    "ilt": 768,
    "vel": 769,
    "emn": 770,
    "ife": 771,
    "reas": 772,
    "ible": 773,
    " ho": 774,
    "ils": 775,
    "ounds": 776,
    " opp": 777,
    "iles": 778,
    "Al": 779,
    " adm": 780,
    " requ": 781,
    "me": 782,
    "now": 783,
    " wa": 784,
    "laim": 785,
    "Ch": 786,
    "ches": 787,
    "ross": 788,
    "rel": 789,
    "let": 790,
    " pen": 791,
    "Ex": 792,
    "ief": 793,
    " aw": 794,
    " rel": 795,
    " go": 796,
    " not": 797,
    " serv": 798,
    "port": 799,
    " mal": 800,
    "ously": 801,
    "ich": 802,
    " hel": 803,
    "arr": 804,
    " fa": 805,
    "oman": 806,
    "gra": 807,
    "earing": 808,
    "ourt": 809,
    "eath": 810,
    "ares": 811,
    "ines": 812,
    "ages": 813,
    "arry": 814,
    " pass": 815,
    "gs": 816,
    "outh": 817,
    "ately": 818,
    "alt": 819,
    "Su": 820,
    "irc": 821,
    " af": 822,
    "oot": 823,
    "augh": 824,
    " ret": 825,
    "con": 826,
    "reed": 827,
    "lar": 828,
    "inn": 829,
    "ames": 830,
    " sec": 831,
    " ble": 832,
    "irect": 833,
    " ext": 834,
    "ution": 835,
    " ref": 836,
    "rest": 837,
    " sle": 838,
    "ched": 839,
    "uff": 840,
    "dle": 841,
    "aken": 842,
    " den": 843,
    " sk": 844,
    " med": 845,
    "usic": 846,
    " K": 847,
    "iled": 848,
    "owl": 849,
    "ET": 850,
    "IS": 851,
    "efore": 852,
    " an": 853,
    " Mar": 854,
    " hum": 855,
    " as": 856,
    " with": 857,
    " end": 858,
    "ude": 859,
    "irt": 860,
    " und": 861,
    " heav": 862,
    " prov": 863,
    "cing": 864,
    "rum": 865,
    "ingly": 866,
    "ellow": 867,
    " thr": 868,
    "ady": 869,
    " fo": 870,
    "ires": 871,
    " pers": 872,
    " ins": 873,
    "ccess": 874,
    "par": 875,
    "inc": 876,
    " vis": 877,
    "roth": 878,
    "day": 879,
    "aught": 880,
    " bri": 881,
    " sweet": 882,
    "Pl": 883,
    " ap": 884,
    "ives": 885,
    "ib": 886,
    "aste": 887,
    "ron": 888,
    "Sp": 889,
    " cond": 890,
    " ca": 891,
    "aving": 892,
    "ooth": 893,
    "iting": 894,
    "aying": 895,
    " pal": 896,
    "bed": 897,
    "ights": 898,
    "emper": 899,
    "ently": 900,
    "rate": 901,
    " cle": 902,
    "ept": 903,
    "irm": 904,
    "itted": 905,
    " reg": 906,
    " unh": 907,
    "urder": 908,
    "itting": 909,
    "ken": 910,
    "rist": 911,
    "RE": 912,
    "ton": 913,
    "ON": 914,
    " to": 915,
    "Res": 916,
    " pat": 917,
    " fort": 918,
    "outs": 919,
    "IUS": 920,
    "kn": 921,
    " fri": 922,
    "aves": 923,
    "ander": 924,
    "ince": 925,
    "pose": 926,
    " mut": 927,
    "to": 928,
    " compl": 929,
    "ote": 930,
    "ceive": 931,
    "ember": 932,
    "ior": 933,
    "ency": 934,
    "oint": 935,
    " thri": 936,
    " bes": 937,
    "unes": 938,
    "oms": 939,
    "gu": 940,
    "ator": 941,
    " tru": 942,
    " val": 943,
    "ught": 944,
    " circ": 945,
    " doub": 946,
    " bed": 947,
    " exc": 948,
    "umm": 949,
    " red": 950,
    " dra": 951,
    " ph": 952,
    " dri": 953,
    "ening": 954,
    "rey": 955,
    " hard": 956,
    " ste": 957,
    "Tw": 958,
    "ustom": 959,
    "ills": 960,
    "each": 961,
    "asting": 962,
    "dis": 963,
    "agg": 964,
    "ites": 965,
    "oever": 966,
    "get": 967,
    "ested": 968,
    " lim": 969,
    "err": 970,
    " ac": 971,
    "sw": 972,
    "ract": 973,
    " desc": 974,
    "ances": 975,
    " dish": 976,
    "itor": 977,
    "bear": 978,
    "ding": 979,
    "ipp": 980,
    "ified": 981,
    " di": 982,
    "run": 983,
    "aunt": 984,
    "Im": 985,
    " Ch": 986,
    "ped": 987,
    " all": 988,
    " fam": 989,
    " ver": 990,
    "but": 991,
    "ular": 992,
    " count": 993,
    "cont": 994,
    " Y": 995,
    " need": 996,
    " hand": 997,
    "itors": 998,
    " breath": 999,
    "elves": 1000,
    " cal": 1001,
    " usur": 1002,
    " up": 1003,
    " ve": 1004,
    " ben": 1005,
    " bas": 1006,
    "most": 1007,
    "anks": 1008,
    " ev": 1009,
    "ange": 1010,
    " sever": 1011,
    "ume": 1012,
    " there": 1013,
    " ru": 1014,
    "aded": 1015,
    " tro": 1016,
    " fra": 1017,
    "OM": 1018,
    "tt": 1019,
    "uch": 1020,
    "lace": 1021,
    " dem": 1022,
    " disp": 1023,
    " sing": 1024,
    "AU": 1025,
    "orse": 1026,
    "ences": 1027,
    "ender": 1028,
    "like": 1029,
    " mad": 1030,
    "inks": 1031,
    "unn": 1032,
    " har": 1033,
    "way": 1034,
    "resh": 1035,
    "ope": 1036,
    "ical": 1037,
    "erous": 1038,
    " adv": 1039,
    "anced": 1040,
    "erp": 1041,
    "ians": 1042,
    " sign": 1043,
    "ester": 1044,
    "CA": 1045,
    "ests": 1046,
    " ang": 1047,
    "asure": 1048,
    "avour": 1049,
    " amb": 1050,
    "aring": 1051,
    "miss": 1052,
    "arth": 1053,
    " appro": 1054,
    "alth": 1055,
    "ongs": 1056,
    "Comm": 1057,
    " post": 1058,
    " dest": 1059,
    " plain": 1060,
    "ixt": 1061,
    "urch": 1062,
    " stra": 1063,
    "ual": 1064,
    "itation": 1065,
    "Rep": 1066,
    "ising": 1067,
    " bar": 1068,
    "reh": 1069,
    " obs": 1070,
    "posed": 1071,
    "ize": 1072,
    "itter": 1073,
    "hood": 1074,
    " hol": 1075,
    " fors": 1076,
    "orrow": 1077,
    "rupt": 1078,
    "ev": 1079,
    "ident": 1080,
    "vell": 1081,
    "uns": 1082,
    "Bl": 1083,
    "ops": 1084,
    " temp": 1085,
    "ext": 1086,
    "ES": 1087,
    "gl": 1088,
    "ointed": 1089,
    "overn": 1090,
    "LE": 1091,
    "ality": 1092,
    "akest": 1093,
    " squ": 1094,
    "CH": 1095,
    "ieve": 1096,
    " might": 1097,
    "lic": 1098,
    "come": 1099,
    "Cons": 1100,
    "itude": 1101,
    "cking": 1102,
    " trans": 1103,
    " act": 1104,
    "ob": 1105,
    "bell": 1106,
    " kind": 1107,
    "ented": 1108,
    "ric": 1109,
    " best": 1110,
    " gener": 1111,
    " court": 1112,
    " op": 1113,
    " flatter": 1114,
    " war": 1115,
    " fin": 1116,
    " worth": 1117,
    " just": 1118,
    "very": 1119,
    "other": 1120,
    " stand": 1121,
    " nob": 1122,
    " quar": 1123,
    " high": 1124,
    "eech": 1125,
    " hang": 1126,
    "anted": 1127,
    " wis": 1128,
    "vail": 1129,
    "ols": 1130,
    "Mar": 1131,
    "ether": 1132,
    "unt": 1133,
    "any": 1134,
    "uts": 1135,
    "ird": 1136,
    " success": 1137,
    "onder": 1138,
    " hon": 1139,
    "atching": 1140,
    "ren": 1141,
    "LI": 1142,
    "zen": 1143,
    " child": 1144,
    "amp": 1145,
    " fool": 1146,
    "asts": 1147,
    "Sw": 1148,
    "tw": 1149,
    "oods": 1150,
    "ength": 1151,
    " met": 1152,
    " sil": 1153,
    "erc": 1154,
    " viol": 1155,
    " fair": 1156,
    "Mis": 1157,
    "irs": 1158,
    " enc": 1159,
    "rees": 1160,
    "Cond": 1161,
    "erve": 1162,
    "eigh": 1163,
    "position": 1164,
    "umber": 1165,
    " incl": 1166,
    "vy": 1167,
    "ert": 1168,
    "ape": 1169,
    "amed": 1170,
    "uce": 1171,
    "herefore": 1172,
    "vert": 1173,
    "ulate": 1174,
    " hast": 1175,
    "ells": 1176,
    "vey": 1177,
    " test": 1178,
    "orous": 1179,
    "fect": 1180,
    "otion": 1181,
    "with": 1182,
    "ecess": 1183,
    " rid": 1184,
    "uc": 1185,
    "eign": 1186,
    "ative": 1187,
    "stand": 1188,
    "ceived": 1189,
    "ald": 1190,
    "cious": 1191,
    " dam": 1192,
    "ded": 1193,
    "inking": 1194,
    " exec": 1195,
    " bur": 1196,
    " maid": 1197,
    "ker": 1198,
    "ffic": 1199,
    "aved": 1200,
    "opp": 1201,
    "erved": 1202,
    "ify": 1203,
    " Pro": 1204,
    " counter": 1205,
    "rid": 1206,
    "eeds": 1207,
    "ony": 1208,
    " jud": 1209,
    " inv": 1210,
    "aged": 1211,
    " gall": 1212,
    " port": 1213,
    "Pre": 1214,
    " pun": 1215,
    " unst": 1216,
    "reet": 1217,
    "fer": 1218,
    " bon": 1219,
    "aps": 1220,
    "bid": 1221,
    "anish": 1222,
    "isting": 1223,
    " cri": 1224,
    "ourage": 1225,
    "eping": 1226,
    " lament": 1227,
    " unm": 1228,
    "Per": 1229,
    "ouring": 1230,
    "ott": 1231,
    "ranch": 1232,
    " purs": 1233,
    "uing": 1234,
    "eling": 1235,
    "hear": 1236,
    " conj": 1237,
    "poss": 1238,
    "law": 1239,
    "Ar": 1240,
    "Me": 1241,
    " vill": 1242,
    " proph": 1243,
    "ING": 1244,
    "osed": 1245,
    "roke": 1246,
    "aning": 1247,
    " tor": 1248,
    " Christ": 1249,
    " fle": 1250,
    "utation": 1251,
    "ARD": 1252,
    "EL": 1253,
    " lust": 1254,
    "claim": 1255,
    " Fl": 1256,
    "itiz": 1257,
    " fur": 1258,
    " at": 1259,
    " on": 1260,
    "fl": 1261,
    "oles": 1262,
    " reven": 1263,
    "ider": 1264,
    "ims": 1265,
    "enced": 1266,
    " here": 1267,
    " Cap": 1268,
    "So": 1269,
    "He": 1270,
    " where": 1271,
    "With": 1272,
    " show": 1273,
    "asters": 1274,
    "itable": 1275,
    "under": 1276,
    " ed": 1277,
    "rain": 1278,
    "rous": 1279,
    " bod": 1280,
    "oard": 1281,
    " affect": 1282,
    "answ": 1283,
    "ators": 1284,
    " ey": 1285,
    " long": 1286,
    " dig": 1287,
    " art": 1288,
    "Le": 1289,
    " diss": 1290,
    "Des": 1291,
    " sick": 1292,
    "ews": 1293,
    " call": 1294,
    " gar": 1295,
    " el": 1296,
    "ility": 1297,
    "orough": 1298,
    "orns": 1299,
    "alf": 1300,
    "ld": 1301,
    "omin": 1302,
    "stant": 1303,
    " follow": 1304,
    "etter": 1305,
    "dy": 1306,
    "ems": 1307,
    " saf": 1308,
    " embra": 1309,
    "olding": 1310,
    "ek": 1311,
    " spr": 1312,
    " profess": 1313,
    "yself": 1314,
    "AL": 1315,
    "ship": 1316,
    " thank": 1317,
    "reason": 1318,
    "amb": 1319,
    " sens": 1320,
    "ardon": 1321,
    "irg": 1322,
    "so": 1323,
    "lem": 1324,
    "mong": 1325,
    "ellows": 1326,
    " light": 1327,
    "apes": 1328,
    " hur": 1329,
    "acks": 1330,
    " dro": 1331,
    " gentle": 1332,
    "sper": 1333,
    " sac": 1334,
    "rif": 1335,
    "Ab": 1336,
    "epher": 1337,
    " burn": 1338,
    " dec": 1339,
    " threat": 1340,
    "adv": 1341,
    " direct": 1342,
    " draw": 1343,
    "orts": 1344,
    "aker": 1345,
    "rench": 1346,
    "aked": 1347,
    " eff": 1348,
    "ises": 1349,
    " ing": 1350,
    " ta": 1351,
    "ane": 1352,
    "ever": 1353,
    " fal": 1354,
    " deb": 1355,
    "ason": 1356,
    "imes": 1357,
    " begg": 1358,
    " butch": 1359,
    " priv": 1360,
    " gro": 1361,
    " mag": 1362,
    " sy": 1363,
    "wear": 1364,
    " est": 1365,
    "ysic": 1366,
    " emp": 1367,
    " poss": 1368,
    "umph": 1369,
    " inher": 1370,
    "ishes": 1371,
    "urse": 1372,
    "itness": 1373,
    " scar": 1374,
    " confess": 1375,
    " inj": 1376,
    "zed": 1377,
    "ster": 1378,
    "lying": 1379,
    "force": 1380,
    "lock": 1381,
    "iful": 1382,
    " star": 1383,
    "vish": 1384,
    "bert": 1385,
    "oler": 1386,
    "lected": 1387,
    "oung": 1388,
    " contin": 1389,
    "ater": 1390,
    " hop": 1391,
    "atis": 1392,
    "oose": 1393,
    "usion": 1394,
    " pol": 1395,
    "rud": 1396,
    "oved": 1397,
    "oop": 1398,
    " comb": 1399,
    "ipe": 1400,
    "yran": 1401,
    " accom": 1402,
    "ples": 1403,
    "aths": 1404,
    " occ": 1405,
    "omen": 1406,
    "ctions": 1407,
    "ellig": 1408,
    "yal": 1409,
    "lots": 1410,
    " troub": 1411,
    " spl": 1412,
    " ir": 1413,
    "olds": 1414,
    " bew": 1415,
    "born": 1416,
    " Sh": 1417,
    " Al": 1418,
    "pret": 1419,
    "inate": 1420,
    "ivers": 1421,
    "ny": 1422,
    "inds": 1423,
    "joy": 1424,
    " vict": 1425,
    " ens": 1426,
    " eng": 1427,
    "comfort": 1428,
    " St": 1429,
    " mourn": 1430,
    "ork": 1431,
    "reach": 1432,
    " murder": 1433,
    " prot": 1434,
    "AS": 1435,
    "aul": 1436,
    " arg": 1437,
    "ursed": 1438,
    "ales": 1439,
    " bea": 1440,
    " stab": 1441,
    " cro": 1442,
    "AM": 1443,
    "uspect": 1444,
    "off": 1445,
    " sn": 1446,
    " det": 1447,
    " strang": 1448,
    "ging": 1449,
    "rep": 1450,
    "ford": 1451,
    " import": 1452,
    "Acc": 1453,
    "bl": 1454,
    " Her": 1455,
    " shri": 1456,
    "asted": 1457,
    "azed": 1458,
    "order": 1459,
    "TH": 1460,
    "yr": 1461,
    "iring": 1462,
    "ots": 1463,
    " cred": 1464,
    " conc": 1465,
    "cked": 1466,
    "oned": 1467,
    "aled": 1468,
    "ina": 1469,
    "irst": 1470,
    " proceed": 1471,
    "eak": 1472,
    " know": 1473,
    "ople": 1474,
    " good": 1475,
    " super": 1476,
    " dear": 1477,
    "ecial": 1478,
    "ainst": 1479,
    " common": 1480,
    "cons": 1481,
    " nat": 1482,
    " accus": 1483,
    "etition": 1484,
    "ese": 1485,
    "ways": 1486,
    " pray": 1487,
    " bus": 1488,
    "App": 1489,
    " kne": 1490,
    "athers": 1491,
    "cra": 1492,
    "fess": 1493,
    "ittle": 1494,
    "There": 1495,
    " mid": 1496,
    " id": 1497,
    "ike": 1498,
    "abour": 1499,
    " instru": 1500,
    " repl": 1501,
    " env": 1502,
    "ipt": 1503,
    " couns": 1504,
    " arm": 1505,
    "iber": 1506,
    "ause": 1507,
    "erves": 1508,
    "Where": 1509,
    " how": 1510,
    " great": 1511,
    " batt": 1512,
    " rub": 1513,
    " abh": 1514,
    " trust": 1515,
    "xes": 1516,
    " keep": 1517,
    " stor": 1518,
    " decl": 1519,
    "Bel": 1520,
    "alls": 1521,
    " sent": 1522,
    "gar": 1523,
    "rut": 1524,
    "fid": 1525,
    " sin": 1526,
    " gn": 1527,
    "BR": 1528,
    "iant": 1529,
    " command": 1530,
    " misc": 1531,
    " ut": 1532,
    " earn": 1533,
    " seem": 1534,
    " bef": 1535,
    "arew": 1536,
    "OL": 1537,
    "aughter": 1538,
    "more": 1539,
    " hus": 1540,
    " pluck": 1541,
    " entreat": 1542,
    " stir": 1543,
    " joy": 1544,
    " iss": 1545,
    "upt": 1546,
    "woman": 1547,
    " Val": 1548,
    "vest": 1549,
    "ask": 1550,
    "cian": 1551,
    " wel": 1552,
    " sch": 1553,
    "ably": 1554,
    " want": 1555,
    "thing": 1556,
    "after": 1557,
    "irth": 1558,
    "oke": 1559,
    "add": 1560,
    " Ad": 1561,
    "bra": 1562,
    " infect": 1563,
    " wind": 1564,
    " Pl": 1565,
    " fac": 1566,
    "iers": 1567,
    " ter": 1568,
    "ooks": 1569,
    "ze": 1570,
    "ouble": 1571,
    " dang": 1572,
    " god": 1573,
    "dess": 1574,
    " mean": 1575,
    " woo": 1576,
    "ague": 1577,
    "ease": 1578,
    " pain": 1579,
    "Div": 1580,
    "uries": 1581,
    "adst": 1582,
    " conce": 1583,
    "rib": 1584,
    " proper": 1585,
    " harm": 1586,
    " host": 1587,
    "omet": 1588,
    "eliver": 1589,
    " forg": 1590,
    " wear": 1591,
    "older": 1592,
    " sleep": 1593,
    "asion": 1594,
    "sing": 1595,
    "mal": 1596,
    " touch": 1597,
    " advers": 1598,
    "oked": 1599,
    " wors": 1600,
    "comp": 1601,
    " ma": 1602,
    "jects": 1603,
    "ourable": 1604,
    "ounded": 1605,
    " possess": 1606,
    "done": 1607,
    "asing": 1608,
    " dark": 1609,
    " ren": 1610,
    " new": 1611,
    " liv": 1612,
    " cre": 1613,
    "oubt": 1614,
    " anc": 1615,
    "estion": 1616,
    " ven": 1617,
    "ledge": 1618,
    "eous": 1619,
    "bon": 1620,
    " reb": 1621,
    "uke": 1622,
    " deter": 1623,
    " determ": 1624,
    " mult": 1625,
    "po": 1626,
    " feat": 1627,
    "esh": 1628,
    "gr": 1629,
    " wed": 1630,
    "beh": 1631,
    "Cont": 1632,
    "uous": 1633,
    "gentle": 1634,
    " moun": 1635,
    "apt": 1636,
    "char": 1637,
    " meth": 1638,
    " arri": 1639,
    "Qu": 1640,
    " past": 1641,
    "arp": 1642,
    " desp": 1643,
    " learn": 1644,
    " Be": 1645,
    " concl": 1646,
    "ails": 1647,
    " law": 1648,
    " inno": 1649,
    " Sic": 1650,
    "inct": 1651,
    "ounce": 1652,
    "draw": 1653,
    "met": 1654,
    "rup": 1655,
    "isted": 1656,
    "roll": 1657,
    "reg": 1658,
    " ord": 1659,
    " extrem": 1660,
    " sal": 1661,
    " corre": 1662,
    " virg": 1663,
    " conqu": 1664,
    "iction": 1665,
    "Supp": 1666,
    "rong": 1667,
    "Lo": 1668,
    "atches": 1669,
    "uri": 1670,
    " dread": 1671,
    " capt": 1672,
    "ille": 1673,
    " tack": 1674,
    " wre": 1675,
    "arest": 1676,
    " quarrel": 1677,
    "ading": 1678,
    "roy": 1679,
    " sim": 1680,
    "ked": 1681,
    " imag": 1682,
    " happ": 1683,
    " mess": 1684,
    "iety": 1685,
    " mel": 1686,
    "eys": 1687,
    " chang": 1688,
    " ur": 1689,
    "aints": 1690,
    " acqu": 1691,
    " convey": 1692,
    " chast": 1693,
    "eve": 1694,
    "orious": 1695,
    "mp": 1696,
    "ealous": 1697,
    " flow": 1698,
    "just": 1699,
    "pes": 1700,
    " shr": 1701,
    "Int": 1702,
    "Tra": 1703,
    "tains": 1704,
    "oly": 1705,
    "illed": 1706,
    "LO": 1707,
    "UC": 1708,
    "ums": 1709,
    "rim": 1710,
    "portion": 1711,
    " dream": 1712,
    "erw": 1713,
    "UR": 1714,
    "bury": 1715,
    "sequ": 1716,
    "voc": 1717,
    "host": 1718,
    "dig": 1719,
    " Bl": 1720,
    "liff": 1721,
    "ley": 1722,
    " stud": 1723,
    "ham": 1724,
    "iding": 1725,
    "maid": 1726,
    "De": 1727,
    " unl": 1728,
    "atic": 1729,
    "umbling": 1730,
    "inces": 1731,
    "Rem": 1732,
    "bow": 1733,
    " lod": 1734,
    "usp": 1735,
    "eek": 1736,
    "go": 1737,
    "olour": 1738,
    "ailing": 1739,
    "OP": 1740,
    "uish": 1741,
    " unp": 1742,
    "Gra": 1743,
    "oh": 1744,
    "atisf": 1745,
    "iate": 1746,
    " line": 1747,
    " imm": 1748,
    "runk": 1749,
    " tort": 1750,
    "chance": 1751,
    "herew": 1752,
    "herewith": 1753,
    "enting": 1754,
    "worth": 1755,
    "iced": 1756,
    " hab": 1757,
    "Dep": 1758,
    "ades": 1759,
    "eeming": 1760,
    "ened": 1761,
    " Sp": 1762,
    "isc": 1763,
    "unts": 1764,
    " Flor": 1765,
    "peak": 1766,
    " resol": 1767,
    "cians": 1768,
    "uth": 1769,
    "uthor": 1770,
    "ieved": 1771,
    " partic": 1772,
    "su": 1773,
    "ecially": 1774,
    " proud": 1775,
    " soft": 1776,
    " can": 1777,
    " cann": 1778,
    " must": 1779,
    "vet": 1780,
    " honest": 1781,
    " sen": 1782,
    " ink": 1783,
    "eds": 1784,
    " strong": 1785,
    " care": 1786,
    " suff": 1787,
    " may": 1788,
    " ten": 1789,
    " ever": 1790,
    "iment": 1791,
    "rue": 1792,
    " rich": 1793,
    " stat": 1794,
    "utes": 1795,
    " bear": 1796,
    " pret": 1797,
    " deliver": 1798,
    "ulf": 1799,
    " remain": 1800,
    "board": 1801,
    " vi": 1802,
    " see": 1803,
    " answ": 1804,
    " fro": 1805,
    " look": 1806,
    " mutin": 1807,
    " heart": 1808,
    "oldier": 1809,
    "Bec": 1810,
    " blood": 1811,
    "ural": 1812,
    " aud": 1813,
    " flour": 1814,
    " right": 1815,
    " benef": 1816,
    "iff": 1817,
    "inion": 1818,
    " abhor": 1819,
    "ghts": 1820,
    "Up": 1821,
    "avours": 1822,
    " down": 1823,
    "aks": 1824,
    " feed": 1825,
    " fact": 1826,
    " fee": 1827,
    " pick": 1828,
    " persu": 1829,
    "antly": 1830,
    " cow": 1831,
    " dissol": 1832,
    "range": 1833,
    " em": 1834,
    " trib": 1835,
    "oice": 1836,
    "enger": 1837,
    " Vols": 1838,
    "fidius": 1839,
    "ogether": 1840,
    " revol": 1841,
    "Att": 1842,
    " attend": 1843,
    " equ": 1844,
    " mod": 1845,
    " lik": 1846,
    " appear": 1847,
    " discover": 1848,
    " short": 1849,
    "oriol": 1850,
    " certain": 1851,
    " meet": 1852,
    " assist": 1853,
    "arewell": 1854,
    "UM": 1855,
    " comfort": 1856,
    " husb": 1857,
    " fre": 1858,
    " gaz": 1859,
    " return": 1860,
    " less": 1861,
    " ele": 1862,
    "feit": 1863,
    "Gentle": 1864,
    " hair": 1865,
    "unning": 1866,
    " fear": 1867,
    " becom": 1868,
    " bless": 1869,
    " school": 1870,
    " after": 1871,
    "te": 1872,
    " play": 1873,
    " speed": 1874,
    " strength": 1875,
    "inger": 1876,
    " night": 1877,
    "ilia": 1878,
    " turn": 1879,
    " wag": 1880,
    " march": 1881,
    "iel": 1882,
    "ields": 1883,
    "oughts": 1884,
    "enches": 1885,
    " wid": 1886,
    "hard": 1887,
    " pot": 1888,
    "lain": 1889,
    "dden": 1890,
    "cle": 1891,
    "ato": 1892,
    "cus": 1893,
    "etch": 1894,
    " pack": 1895,
    " spir": 1896,
    " warm": 1897,
    " deep": 1898,
    " oppos": 1899,
    " pow": 1900,
    "ounter": 1901,
    " sacrif": 1902,
    " giv": 1903,
    "ouldst": 1904,
    " tap": 1905,
    "Condemn": 1906,
    " bud": 1907,
    "Ret": 1908,
    " Ant": 1909,
    " condu": 1910,
    "lease": 1911,
    "arded": 1912,
    " condemn": 1913,
    " shru": 1914,
    "righted": 1915,
    "adly": 1916,
    "amest": 1917,
    "erving": 1918,
    "eft": 1919,
    " trad": 1920,
    " vouch": 1921,
    " hors": 1922,
    " treas": 1923,
    " ach": 1924,
    "aced": 1925,
    " sooth": 1926,
    " wret": 1927,
    " hy": 1928,
    "acles": 1929,
    "onging": 1930,
    "LAN": 1931,
    " mock": 1932,
    " princ": 1933,
    " san": 1934,
    " sanct": 1935,
    "arqu": 1936,
    " brother": 1937,
    " journ": 1938,
    " aug": 1939,
    "ature": 1940,
    " teach": 1941,
    " ba": 1942,
    "pping": 1943,
    "occ": 1944,
    "upon": 1945,
    "uses": 1946,
    "though": 1947,
    "well": 1948,
    "lean": 1949,
    "sec": 1950,
    "amber": 1951,
    "angled": 1952,
    " necess": 1953,
    "ulous": 1954,
    "venture": 1955,
    " earth": 1956,
    " approach": 1957,
    " prosper": 1958,
    " health": 1959,
    " physic": 1960,
    " sover": 1961,
    " sovereign": 1962,
    "not": 1963,
    "ayed": 1964,
    "atri": 1965,
    "enty": 1966,
    " triumph": 1967,
    " crown": 1968,
    " root": 1969,
    " faith": 1970,
    "ettle": 1971,
    " cast": 1972,
    " spect": 1973,
    "pture": 1974,
    " bab": 1975,
    "oil": 1976,
    " Ph": 1977,
    " consul": 1978,
    "uring": 1979,
    " mann": 1980,
    "ruction": 1981,
    " fall": 1982,
    " eas": 1983,
    " bla": 1984,
    " blind": 1985,
    " glo": 1986,
    "chers": 1987,
    "eto": 1988,
    "bly": 1989,
    " dign": 1990,
    " tim": 1991,
    " fat": 1992,
    "anting": 1993,
    " ow": 1994,
    " In": 1995,
    "mon": 1996,
    " compass": 1997,
    "avior": 1998,
    "onour": 1999,
    " od": 2000,
    " ant": 2001,
    "iqu": 2002,
    "Se": 2003,
    "icial": 2004,
    " summ": 2005,
    "mit": 2006,
    " bru": 2007,
    "iece": 2008,
    "emble": 2009,
    "voke": 2010,
    " appreh": 2011,
    " young": 2012,
    " van": 2013,
    "hold": 2014,
    "andal": 2015,
    "leness": 2016,
    " cock": 2017,
    " sed": 2018,
    "Ne": 2019,
    "rank": 2020,
    "rol": 2021,
    " respect": 2022,
    "Ed": 2023,
    " near": 2024,
    "uild": 2025,
    " cold": 2026,
    " proc": 2027,
    " undert": 2028,
    " creat": 2029,
    " mil": 2030,
    " thw": 2031,
    " cross": 2032,
    " compan": 2033,
    " allow": 2034,
    " correct": 2035,
    " rip": 2036,
    " virgin": 2037,
    "asses": 2038,
    "ildly": 2039,
    "Ass": 2040,
    "alm": 2041,
    " tyran": 2042,
    "urious": 2043,
    " mill": 2044,
    "osing": 2045,
    "isters": 2046,
    "enders": 2047,
    " hoo": 2048,
    "cep": 2049,
    "ilence": 2050,
    "erity": 2051,
    "log": 2052,
    " intellig": 2053,
    "unate": 2054,
    "dist": 2055,
    " bitter": 2056,
    "rance": 2057,
    " fun": 2058,
    "chief": 2059,
    "astard": 2060,
    " ash": 2061,
    " braw": 2062,
    " alter": 2063,
    "gel": 2064,
    "ooking": 2065,
    "bro": 2066,
    "bur": 2067,
    "uted": 2068,
    " rust": 2069,
    " tempor": 2070,
    " join": 2071,
    "posing": 2072,
    " cas": 2073,
    "elt": 2074,
    "kind": 2075,
    "anging": 2076,
    "iar": 2077,
    "isper": 2078,
    " sour": 2079,
    " grand": 2080,
    "uty": 2081,
    "ials": 2082,
    "tri": 2083,
    "bel": 2084,
    "eder": 2085,
    " differ": 2086,
    "reading": 2087,
    "Pres": 2088,
    "Sub": 2089,
    "Fl": 2090,
    "ousin": 2091,
    "aped": 2092,
    "Def": 2093,
    " lam": 2094,
    "CE": 2095,
    "arch": 2096,
    "loy": 2097,
    " enf": 2098,
    " buz": 2099,
    "wick": 2100,
    " gains": 2101,
    " fig": 2102,
    " foul": 2103,
    "govern": 2104,
    "afe": 2105,
    " guilt": 2106,
    "edge": 2107,
    " damn": 2108,
    "antag": 2109,
    " hom": 2110,
    "ersh": 2111,
    "veth": 2112,
    "ros": 2113,
    "lemn": 2114,
    " unsh": 2115,
    " du": 2116,
    "RI": 2117,
    "GRE": 2118,
    " cheer": 2119,
    " protect": 2120,
    " En": 2121,
    "iance": 2122,
    " innoc": 2123,
    "orted": 2124,
    " torment": 2125,
    "Aff": 2126,
    "Rich": 2127,
    "unch": 2128,
    "otted": 2129,
    "val": 2130,
    " misd": 2131,
    "jud": 2132,
    "ects": 2133,
    "ugg": 2134,
    "Rel": 2135,
    "Unt": 2136,
    " order": 2137,
    "change": 2138,
    "appy": 2139,
    " earl": 2140,
    " revers": 2141,
    "inged": 2142,
    "embl": 2143,
    " unth": 2144,
    " dim": 2145,
    "reen": 2146,
    " firm": 2147,
    " mistrust": 2148,
    " Jul": 2149,
    "ively": 2150,
    " mor": 2151,
    "cast": 2152,
    "ORD": 2153,
    " neg": 2154,
    " consp": 2155,
    " Sc": 2156,
    "locks": 2157,
    "atters": 2158,
    " stew": 2159,
    "stit": 2160,
    " repro": 2161,
    "ona": 2162,
    " pitch": 2163,
    " buck": 2164,
    "then": 2165,
    "Desp": 2166,
    "pers": 2167,
    " sear": 2168,
    "certain": 2169,
    " music": 2170,
    "lest": 2171,
    "rief": 2172,
    "enn": 2173,
    " adul": 2174,
    " adulter": 2175,
    "clam": 2176,
    "ainted": 2177,
    "aven": 2178,
    "ists": 2179,
    "ishop": 2180,
    "anded": 2181,
    "arried": 2182,
    " Le": 2183,
    "bit": 2184,
    "Forbid": 2185,
    "etting": 2186,
    "ival": 2187,
    "ettled": 2188,
    "ishing": 2189,
    "sk": 2190,
    " pil": 2191,
    "asp": 2192,
    "ounding": 2193,
    "ention": 2194,
    " robb": 2195,
    "father": 2196,
    "AG": 2197,
    " begu": 2198,
    "ores": 2199,
    "omp": 2200,
    "got": 2201,
    "urr": 2202,
    "utor": 2203,
    "ira": 2204,
    " baw": 2205,
    "ris": 2206,
    " maiden": 2207,
    "entio": 2208,
    "ua": 2209,
    "ickle": 2210,
    "heres": 2211,
    "encefor": 2212,
    " depend": 2213,
    "imon": 2214,
    "esc": 2215,
    " thick": 2216,
    "Fors": 2217,
    "warn": 2218,
    "fri": 2219,
    "erver": 2220,
    "ication": 2221,
    "itizen": 2222,
    " speak": 2223,
    "olved": 2224,
    "cius": 2225,
    " is": 2226,
    " chief": 2227,
    "emy": 2228,
    " the": 2229,
    " own": 2230,
    "dict": 2231,
    "No": 2232,
    " tal": 2233,
    " let": 2234,
    "itizens": 2235,
    "ounted": 2236,
    " poor": 2237,
    " author": 2238,
    " yield": 2239,
    "olesome": 2240,
    " particular": 2241,
    " abund": 2242,
    " them": 2243,
    " hung": 2244,
    " esp": 2245,
    "Ag": 2246,
    "alty": 2247,
    " country": 2248,
    " say": 2249,
    " alt": 2250,
    " virt": 2251,
    " help": 2252,
    "orthy": 2253,
    " Ag": 2254,
    "the": 2255,
    " my": 2256,
    "known": 2257,
    "night": 2258,
    " friends": 2259,
    " neigh": 2260,
    "bours": 2261,
    " yours": 2262,
    " For": 2263,
    "Stri": 2264,
    " cour": 2265,
    " slander": 2266,
    "When": 2267,
    "ouses": 2268,
    " repe": 2269,
    "pier": 2270,
    "there": 2271,
    " fol": 2272,
    " vent": 2273,
    " disgra": 2274,
    " cup": 2275,
    " instruct": 2276,
    "ually": 2277,
    "ole": 2278,
    " taun": 2279,
    " discont": 2280,
    " malign": 2281,
    " counsell": 2282,
    " tong": 2283,
    " trump": 2284,
    "iments": 2285,
    " fellow": 2286,
    " complain": 2287,
    "atience": 2288,
    "while": 2289,
    " friend": 2290,
    "Not": 2291,
    " rash": 2292,
    "por": 2293,
    "house": 2294,
    " remember": 2295,
    " through": 2296,
    " mark": 2297,
    "See": 2298,
    " back": 2299,
    " bran": 2300,
    " exam": 2301,
    "Touch": 2302,
    " find": 2303,
    " pub": 2304,
    " low": 2305,
    "scal": 2306,
    " run": 2307,
    "antage": 2308,
    "entious": 2309,
    "bing": 2310,
    "Ben": 2311,
    " curs": 2312,
    "stone": 2313,
    " sun": 2314,
    " subd": 2315,
    " lead": 2316,
    " rush": 2317,
    " ye": 2318,
    " mind": 2319,
    " pla": 2320,
    " cry": 2321,
    " ruth": 2322,
    " coward": 2323,
    " sigh": 2324,
    " bold": 2325,
    " vul": 2326,
    "inius": 2327,
    " throw": 2328,
    "Here": 2329,
    " eld": 2330,
    "ullus": 2331,
    "ufidius": 2332,
    " put": 2333,
    "On": 2334,
    "TI": 2335,
    "SI": 2336,
    "UT": 2337,
    " modest": 2338,
    " present": 2339,
    " disd": 2340,
    " wonder": 2341,
    " cens": 2342,
    "Bes": 2343,
    "icks": 2344,
    " rob": 2345,
    "How": 2346,
    " singular": 2347,
    " circum": 2348,
    "vention": 2349,
    " press": 2350,
    " west": 2351,
    " rum": 2352,
    " doubt": 2353,
    " prep": 2354,
    "ties": 2355,
    " parc": 2356,
    " hither": 2357,
    " betw": 2358,
    " rej": 2359,
    " embrace": 2360,
    "bod": 2361,
    "omb": 2362,
    " person": 2363,
    " cru": 2364,
    "child": 2365,
    " found": 2366,
    " vol": 2367,
    "adam": 2368,
    "Meth": 2369,
    "iter": 2370,
    "head": 2371,
    " bid": 2372,
    "avens": 2373,
    " lad": 2374,
    " lady": 2375,
    " manif": 2376,
    " house": 2377,
    "keep": 2378,
    "ewing": 2379,
    "aith": 2380,
    "look": 2381,
    "master": 2382,
    "nes": 2383,
    " counten": 2384,
    "fly": 2385,
    "fall": 2386,
    " warr": 2387,
    " la": 2388,
    "ths": 2389,
    " earnest": 2390,
    " Pr": 2391,
    "ithee": 2392,
    "LAR": 2393,
    " lie": 2394,
    " ours": 2395,
    " quick": 2396,
    "ringing": 2397,
    " fast": 2398,
    " big": 2399,
    " fier": 2400,
    " trem": 2401,
    " double": 2402,
    "venient": 2403,
    " numb": 2404,
    " second": 2405,
    " pra": 2406,
    "ortune": 2407,
    "Bre": 2408,
    "athe": 2409,
    " stru": 2410,
    " smil": 2411,
    " shepher": 2412,
    "thers": 2413,
    "ansom": 2414,
    " fawn": 2415,
    " grey": 2416,
    " sla": 2417,
    " inform": 2418,
    " cat": 2419,
    " dar": 2420,
    "lied": 2421,
    " willing": 2422,
    " bad": 2423,
    " cent": 2424,
    " serp": 2425,
    " foot": 2426,
    "ger": 2427,
    "ollo": 2428,
    " prog": 2429,
    "Off": 2430,
    "ully": 2431,
    " grie": 2432,
    " indu": 2433,
    "ected": 2434,
    "atitude": 2435,
    " sau": 2436,
    "ensed": 2437,
    "oken": 2438,
    "amour": 2439,
    " add": 2440,
    " blush": 2441,
    " artic": 2442,
    "ifts": 2443,
    " bound": 2444,
    " prison": 2445,
    "whel": 2446,
    " freed": 2447,
    " butcher": 2448,
    " free": 2449,
    " cr": 2450,
    "tle": 2451,
    " poison": 2452,
    "ements": 2453,
    " privile": 2454,
    " custom": 2455,
    "press": 2456,
    " accord": 2457,
    " wol": 2458,
    "mity": 2459,
    "hand": 2460,
    " talk": 2461,
    " deal": 2462,
    "give": 2463,
    "itions": 2464,
    " pleas": 2465,
    "pleasure": 2466,
    " grow": 2467,
    "do": 2468,
    " hot": 2469,
    "ometh": 2470,
    "omething": 2471,
    "inder": 2472,
    " convers": 2473,
    " utter": 2474,
    " dr": 2475,
    " maj": 2476,
    "ables": 2477,
    " rever": 2478,
    " charact": 2479,
    "oon": 2480,
    "eding": 2481,
    "agging": 2482,
    "addle": 2483,
    " cheap": 2484,
    " pred": 2485,
    "adventure": 2486,
    "best": 2487,
    " beast": 2488,
    "onourable": 2489,
    "bation": 2490,
    "cri": 2491,
    "ption": 2492,
    " Is": 2493,
    "ipl": 2494,
    " purch": 2495,
    " exped": 2496,
    "Her": 2497,
    "owned": 2498,
    " laugh": 2499,
    " coff": 2500,
    " welcom": 2501,
    " Wel": 2502,
    " build": 2503,
    "ancy": 2504,
    "attling": 2505,
    "Cl": 2506,
    " bul": 2507,
    " var": 2508,
    " comple": 2509,
    " pop": 2510,
    " kiss": 2511,
    " sli": 2512,
    " temper": 2513,
    " nap": 2514,
    " execution": 2515,
    " sure": 2516,
    " sugg": 2517,
    "ules": 2518,
    " plead": 2519,
    " dumb": 2520,
    " careless": 2521,
    "iffer": 2522,
    "asc": 2523,
    " deg": 2524,
    "rateful": 2525,
    " length": 2526,
    "ital": 2527,
    " stret": 2528,
    "inent": 2529,
    "fellow": 2530,
    " shame": 2531,
    " hor": 2532,
    " weigh": 2533,
    " Am": 2534,
    "Sle": 2535,
    " wax": 2536,
    "Turn": 2537,
    " terr": 2538,
    " sport": 2539,
    " sail": 2540,
    " mort": 2541,
    " plan": 2542,
    " pier": 2543,
    "pet": 2544,
    "erle": 2545,
    "headed": 2546,
    "ruly": 2547,
    " wit": 2548,
    " liber": 2549,
    " dew": 2550,
    "ourth": 2551,
    "part": 2552,
    "Bid": 2553,
    " te": 2554,
    "ieu": 2555,
    " odd": 2556,
    "custom": 2557,
    "dom": 2558,
    " nod": 2559,
    " desir": 2560,
    "ifth": 2561,
    " wool": 2562,
    " err": 2563,
    "End": 2564,
    " Will": 2565,
    " ign": 2566,
    "liness": 2567,
    "arters": 2568,
    "Tr": 2569,
    "Trans": 2570,
    "advised": 2571,
    "ination": 2572,
    " une": 2573,
    " sol": 2574,
    " judg": 2575,
    " weed": 2576,
    "ension": 2577,
    "vely": 2578,
    "Af": 2579,
    " read": 2580,
    " stock": 2581,
    " king": 2582,
    " ancest": 2583,
    " rememb": 2584,
    " fix": 2585,
    " haz": 2586,
    "quis": 2587,
    "ouds": 2588,
    " inqu": 2589,
    " meas": 2590,
    "Hear": 2591,
    "rit": 2592,
    " absol": 2593,
    " reck": 2594,
    "dra": 2595,
    " curr": 2596,
    " frown": 2597,
    "ense": 2598,
    "esy": 2599,
    " eag": 2600,
    "Ins": 2601,
    " tit": 2602,
    " om": 2603,
    " slight": 2604,
    " prefer": 2605,
    " traitor": 2606,
    " hands": 2607,
    "Pe": 2608,
    "Conf": 2609,
    " quench": 2610,
    " flat": 2611,
    " pron": 2612,
    " forbid": 2613,
    " vip": 2614,
    " rig": 2615,
    "oc": 2616,
    " resc": 2617,
    " cut": 2618,
    "Mer": 2619,
    "Purs": 2620,
    " unsc": 2621,
    " swift": 2622,
    " bol": 2623,
    "inning": 2624,
    "Cle": 2625,
    " apt": 2626,
    " unse": 2627,
    "ones": 2628,
    " stout": 2629,
    "Pr": 2630,
    "hereto": 2631,
    "Sm": 2632,
    "ulls": 2633,
    "oys": 2634,
    " banish": 2635,
    " hap": 2636,
    " conquer": 2637,
    " contra": 2638,
    "Keep": 2639,
    "ety": 2640,
    " lar": 2641,
    " stre": 2642,
    "Draw": 2643,
    " church": 2644,
    "yard": 2645,
    " contri": 2646,
    " sat": 2647,
    "Opp": 2648,
    "inal": 2649,
    "que": 2650,
    "Env": 2651,
    " tender": 2652,
    " corrupt": 2653,
    "umes": 2654,
    "ervation": 2655,
    " vex": 2656,
    "cible": 2657,
    " pest": 2658,
    " occup": 2659,
    " fond": 2660,
    " drag": 2661,
    " thrust": 2662,
    " humb": 2663,
    "ican": 2664,
    "ision": 2665,
    "lowing": 2666,
    "anished": 2667,
    "great": 2668,
    "acc": 2669,
    " merri": 2670,
    " royal": 2671,
    " warn": 2672,
    " Fri": 2673,
    "epar": 2674,
    "join": 2675,
    " birth": 2676,
    " avo": 2677,
    " dwell": 2678,
    "aws": 2679,
    "istress": 2680,
    "atest": 2681,
    " cloud": 2682,
    "Unb": 2683,
    " weak": 2684,
    " destroy": 2685,
    " bott": 2686,
    " rain": 2687,
    " ball": 2688,
    "gy": 2689,
    " rav": 2690,
    " quiet": 2691,
    "ized": 2692,
    "Ours": 2693,
    " whipp": 2694,
    "kely": 2695,
    " contr": 2696,
    "idence": 2697,
    " butter": 2698,
    " fru": 2699,
    " craf": 2700,
    " desper": 2701,
    " tum": 2702,
    " wrong": 2703,
    " wealth": 2704,
    " design": 2705,
    " expect": 2706,
    " distress": 2707,
    "heard": 2708,
    "Red": 2709,
    "ometimes": 2710,
    "elling": 2711,
    " Can": 2712,
    " push": 2713,
    "ront": 2714,
    " dot": 2715,
    "exec": 2716,
    "irra": 2717,
    "water": 2718,
    " remiss": 2719,
    "iliar": 2720,
    "fulness": 2721,
    "ner": 2722,
    "uge": 2723,
    " embass": 2724,
    " vow": 2725,
    " bond": 2726,
    " obst": 2727,
    " forsw": 2728,
    " jealous": 2729,
    "ression": 2730,
    " unpro": 2731,
    "Bet": 2732,
    " imposs": 2733,
    " sister": 2734,
    "ics": 2735,
    " enjoy": 2736,
    "iving": 2737,
    " chron": 2738,
    " chronic": 2739,
    "sent": 2740,
    "cond": 2741,
    "oves": 2742,
    "lex": 2743,
    " et": 2744,
    " greet": 2745,
    "Fri": 2746,
    " lur": 2747,
    "ym": 2748,
    "idings": 2749,
    " const": 2750,
    "edu": 2751,
    "serv": 2752,
    " merc": 2753,
    "itten": 2754,
    " lev": 2755,
    " subs": 2756,
    "iously": 2757,
    "Coun": 2758,
    " ann": 2759,
    "inter": 2760,
    " delight": 2761,
    " smooth": 2762,
    " wrink": 2763,
    "ead": 2764,
    " pip": 2765,
    " treach": 2766,
    " clos": 2767,
    "Bro": 2768,
    "ENCE": 2769,
    "orge": 2770,
    " Rich": 2771,
    " goss": 2772,
    " monarch": 2773,
    "BRA": 2774,
    " cher": 2775,
    "fol": 2776,
    " except": 2777,
    " employ": 2778,
    " enfranch": 2779,
    " path": 2780,
    " griev": 2781,
    " weight": 2782,
    "arwick": 2783,
    " reign": 2784,
    " obsequ": 2785,
    "nant": 2786,
    "vocate": 2787,
    " ghost": 2788,
    "ugh": 2789,
    "abb": 2790,
    " dire": 2791,
    " miser": 2792,
    "pen": 2793,
    " exh": 2794,
    " empt": 2795,
    " inh": 2796,
    " swallow": 2797,
    "illain": 2798,
    " perfect": 2799,
    "stance": 2800,
    "Fair": 2801,
    "isure": 2802,
    "idst": 2803,
    "antagen": 2804,
    " blem": 2805,
    " solemn": 2806,
    " penit": 2807,
    "ENT": 2808,
    " prodig": 2809,
    "apen": 2810,
    " tail": 2811,
    " cost": 2812,
    "VER": 2813,
    " recover": 2814,
    "UE": 2815,
    "AB": 2816,
    "udes": 2817,
    " Gl": 2818,
    "ouc": 2819,
    "ucking": 2820,
    "KING": 2821,
    "HAM": 2822,
    "BY": 2823,
    "standing": 2824,
    "Gl": 2825,
    "rants": 2826,
    " suspect": 2827,
    " gross": 2828,
    " pit": 2829,
    " ped": 2830,
    " pill": 2831,
    " abod": 2832,
    "orthumber": 2833,
    "ceeding": 2834,
    " loath": 2835,
    "back": 2836,
    "Disp": 2837,
    "Aw": 2838,
    " perj": 2839,
    " seas": 2840,
    "ories": 2841,
    " steal": 2842,
    "bour": 2843,
    "inies": 2844,
    "ilts": 2845,
    " depart": 2846,
    " fulf": 2847,
    "ilty": 2848,
    " grud": 2849,
    "edly": 2850,
    "viol": 2851,
    " hollow": 2852,
    " z": 2853,
    " surm": 2854,
    "ukes": 2855,
    " Engl": 2856,
    " English": 2857,
    "irl": 2858,
    "cap": 2859,
    " dece": 2860,
    "irr": 2861,
    "oan": 2862,
    " govern": 2863,
    "pleased": 2864,
    "acle": 2865,
    "lous": 2866,
    "rich": 2867,
    "tainted": 2868,
    " disting": 2869,
    " suc": 2870,
    "iquity": 2871,
    "grown": 2872,
    "vided": 2873,
    " unwilling": 2874,
    "uit": 2875,
    "LEY": 2876,
    "Pri": 2877,
    "GH": 2878,
    " woe": 2879,
    " satisf": 2880,
    "arden": 2881,
    "long": 2882,
    " whit": 2883,
    " start": 2884,
    " boot": 2885,
    "raught": 2886,
    "forced": 2887,
    "const": 2888,
    "Infer": 2889,
    " spar": 2890,
    " sequ": 2891,
    " contract": 2892,
    " trif": 2893,
    "ilful": 2894,
    " cler": 2895,
    " vap": 2896,
    "idered": 2897,
    "using": 2898,
    "ived": 2899,
    " outst": 2900,
    " tempt": 2901,
    "elting": 2902,
    " chap": 2903,
    "iry": 2904,
    " abst": 2905,
    " soci": 2906,
    "Revol": 2907,
    " attorn": 2908,
    " cop": 2909,
    " cozen": 2910,
    " asp": 2911,
    "aned": 2912,
    "fellows": 2913,
    " luck": 2914,
    "Ple": 2915,
    "rite": 2916,
    " pu": 2917,
    "possess": 2918,
    "shire": 2919,
    "owls": 2920,
    "holds": 2921,
    "IST": 2922,
    "HER": 2923,
    "ustice": 2924,
    "REY": 2925,
    " arbit": 2926,
    "isement": 2927,
    "cock": 2928,
    "dro": 2929,
    "Courage": 2930,
    "Proclaim": 2931,
    " band": 2932,
    "omach": 2933,
    "KE": 2934,
    "uiced": 2935,
    "vern": 2936,
    " exact": 2937,
    " appe": 2938,
    "avish": 2939,
    "shal": 2940,
    "aming": 2941,
    " cours": 2942,
    "urnish": 2943,
    " pilg": 2944,
    " ce": 2945,
    " cele": 2946,
    " celeb": 2947,
    "uned": 2948,
    "fold": 2949,
    "ceives": 2950,
    "cas": 2951,
    " fant": 2952,
    "ained": 2953,
    " foret": 2954,
    " unre": 2955,
    "erns": 2956,
    "IL": 2957,
    "oping": 2958,
    "ingers": 2959,
    " support": 2960,
    " whos": 2961,
    "erse": 2962,
    "Gu": 2963,
    "erth": 2964,
    "aph": 2965,
    " pin": 2966,
    " chid": 2967,
    "eshrew": 2968,
    "eph": 2969,
    " appoint": 2970,
    " amazed": 2971,
    " wood": 2972,
    " obsc": 2973,
    " fret": 2974,
    "alled": 2975,
    " arrest": 2976,
    "Part": 2977,
    "shine": 2978,
    " Gentle": 2979,
    "tern": 2980,
    "mas": 2981,
    "lets": 2982,
    "ressing": 2983,
    " scra": 2984,
    "iveness": 2985,
    "Gro": 2986,
    " travell": 2987,
    " Mont": 2988,
    "ONT": 2989,
    "yb": 2990,
    "changing": 2991,
    "light": 2992,
    "seem": 2993,
    "eather": 2994,
    " prop": 2995,
    " beaut": 2996,
    " Ap": 2997,
    "idow": 2998,
    " hood": 2999,
    "lars": 3000,
    " fil": 3001,
    "nut": 3002,
    " rev": 3003,
    " Pet": 3004,
    "hy": 3005,
    "eyed": 3006,
    "itan": 3007,
    " qual": 3008,
    "dling": 3009,
    "ado": 3010,
    "fair": 3011,
    "ETER": 3012,
    "chant": 3013,
    "urvy": 3014,
    "bey": 3015,
    "Bra": 3016,
    "inners": 3017,
    "ita": 3018,
    "liction": 3019,
    "reasonable": 3020,
    " disgu": 3021,
    "nowledge": 3022,
    "abel": 3023,
    "ixture": 3024,
    "some": 3025,
    "Music": 3026,
    "hors": 3027,
    "othec": 3028,
    "othecary": 3029,
    "uspicious": 3030,
    "avoury": 3031,
    " pref": 3032,
    " esc": 3033,
    "Char": 3034,
    " dispro": 3035,
    "onst": 3036,
    "ista": 3037,
    "kin": 3038,
    " impud": 3039,
    " unlo": 3040,
    " fla": 3041,
    "eathe": 3042,
    " haw": 3043,
    "core": 3044,
    "laud": 3045,
    " Min": 3046,
    "amill": 3047,
    "ohem": 3048,
    "ION": 3049,
    " bag": 3050,
    " restra": 3051,
    "glig": 3052,
    "Kn": 3053,
    "ceiving": 3054,
    "onesty": 3055,
    " nurs": 3056,
    " sess": 3057,
    " Mer": 3058,
    "ait": 3059,
    "awd": 3060,
    " perd": 3061,
    "compl": 3062,
    " discred": 3063,
    "vost": 3064,
    "actors": 3065,
    "contin": 3066,
    " whore": 3067,
    "HOR": 3068,
    "ianc": 3069,
    " any": 3070,
    " Ca": 3071,
    "We": 3072,
    " corn": 3073,
    "Is": 3074,
    " more": 3075,
    " patri": 3076,
    " surfe": 3077,
    " superfl": 3078,
    "uity": 3079,
    "wholesome": 3080,
    " human": 3081,
    " think": 3082,
    " lean": 3083,
    "licts": 3084,
    "fferance": 3085,
    " revenge": 3086,
    " pi": 3087,
    " thirst": 3088,
    "report": 3089,
    "imself": 3090,
    " malicious": 3091,
    "consci": 3092,
    " men": 3093,
    "content": 3094,
    " was": 3095,
    "please": 3096,
    " even": 3097,
    "vice": 3098,
    " way": 3099,
    " covet": 3100,
    " barr": 3101,
    " The": 3102,
    " other": 3103,
    "Soft": 3104,
    " Men": 3105,
    "enius": 3106,
    "MEN": 3107,
    " work": 3108,
    " club": 3109,
    " business": 3110,
    " masters": 3111,
    "Will": 3112,
    "ready": 3113,
    " heaven": 3114,
    " Roman": 3115,
    " will": 3116,
    "The": 3117,
    " thous": 3118,
    " transport": 3119,
    " store": 3120,
    "icts": 3121,
    " da": 3122,
    "abl": 3123,
    " eat": 3124,
    " wond": 3125,
    "Or": 3126,
    "But": 3127,
    "Rebell": 3128,
    "active": 3129,
    " labour": 3130,
    " instrum": 3131,
    "As": 3132,
    "tingly": 3133,
    " fit": 3134,
    "rowned": 3135,
    " head": 3136,
    " vig": 3137,
    " eye": 3138,
    " leg": 3139,
    " pet": 3140,
    "Fore": 3141,
    "orant": 3142,
    " former": 3143,
    " small": 3144,
    "Ye": 3145,
    " infer": 3146,
    "Fro": 3147,
    " compet": 3148,
    "It": 3149,
    " Rome": 3150,
    " public": 3151,
    " assemb": 3152,
    " rebell": 3153,
    " some": 3154,
    "Rome": 3155,
    " battle": 3156,
    " bale": 3157,
    " noble": 3158,
    "MAR": 3159,
    "CIUS": 3160,
    " rog": 3161,
    " nor": 3162,
    " peace": 3163,
    "rights": 3164,
    " He": 3165,
    " should": 3166,
    " hail": 3167,
    " offence": 3168,
    " hate": 3169,
    "Upon": 3170,
    " vile": 3171,
    " marri": 3172,
    "bling": 3173,
    " lance": 3174,
    " thorough": 3175,
    " lack": 3176,
    " forth": 3177,
    " prover": 3178,
    " meat": 3179,
    " mouth": 3180,
    " petition": 3181,
    " break": 3182,
    " power": 3183,
    " moon": 3184,
    "outing": 3185,
    " vulgar": 3186,
    "doms": 3187,
    " Jun": 3188,
    "rutus": 3189,
    "Sic": 3190,
    "utus": 3191,
    "death": 3192,
    " unro": 3193,
    " prevail": 3194,
    " insur": 3195,
    " insurre": 3196,
    "Go": 3197,
    "essenger": 3198,
    " ha": 3199,
    " true": 3200,
    " Aufidius": 3201,
    " wish": 3202,
    "INIUS": 3203,
    " world": 3204,
    " constant": 3205,
    "itus": 3206,
    " crut": 3207,
    " fight": 3208,
    "Noble": 3209,
    "orship": 3210,
    "osen": 3211,
    " eyes": 3212,
    "mock": 3213,
    " valiant": 3214,
    "Tick": 3215,
    " shad": 3216,
    " tread": 3217,
    " insol": 3218,
    "Better": 3219,
    " held": 3220,
    " attain": 3221,
    " place": 3222,
    "arries": 3223,
    " fault": 3224,
    " born": 3225,
    "pinion": 3226,
    " fash": 3227,
    "More": 3228,
    "ID": 3229,
    " east": 3230,
    " rumour": 3231,
    " old": 3232,
    " prepar": 3233,
    " field": 3234,
    "Nor": 3235,
    "emselves": 3236,
    " town": 3237,
    " commiss": 3238,
    " guard": 3239,
    " Coriol": 3240,
    " safe": 3241,
    "VOL": 3242,
    "IA": 3243,
    " express": 3244,
    " husband": 3245,
    " honour": 3246,
    " day": 3247,
    "sell": 3248,
    " hour": 3249,
    " pict": 3250,
    "dang": 3251,
    " cruel": 3252,
    "war": 3253,
    " brows": 3254,
    "ILI": 3255,
    "ILIA": 3256,
    " report": 3257,
    " Hear": 3258,
    "Beseech": 3259,
    " retire": 3260,
    "deed": 3261,
    " drum": 3262,
    " wip": 3263,
    " she": 3264,
    " suck": 3265,
    " contemn": 3266,
    " lord": 3267,
    " fell": 3268,
    " beat": 3269,
    " neck": 3270,
    "Sweet": 3271,
    " spot": 3272,
    " father": 3273,
    "Wed": 3274,
    "nesday": 3275,
    " saw": 3276,
    " gild": 3277,
    " catch": 3278,
    " tear": 3279,
    " mam": 3280,
    "ewife": 3281,
    "noon": 3282,
    "reshold": 3283,
    "my": 3284,
    " Pen": 3285,
    "aca": 3286,
    " camb": 3287,
    " cambric": 3288,
    " pity": 3289,
    " pardon": 3290,
    "ellent": 3291,
    "Ver": 3292,
    " last": 3293,
    "down": 3294,
    " brief": 3295,
    " This": 3296,
    " mirth": 3297,
    " view": 3298,
    " buy": 3299,
    " lend": 3300,
    "undred": 3301,
    "ummon": 3302,
    " far": 3303,
    "oking": 3304,
    " blow": 3305,
    " youth": 3306,
    " open": 3307,
    " list": 3308,
    "Among": 3309,
    "adders": 3310,
    " hearts": 3311,
    " proof": 3312,
    "vance": 3313,
    " sweat": 3314,
    " wrath": 3315,
    " south": 3316,
    "oils": 3317,
    " plag": 3318,
    "urther": 3319,
    " soul": 3320,
    "uto": 3321,
    " hell": 3322,
    "onds": 3323,
    "Follow": 3324,
    " sudden": 3325,
    "dares": 3326,
    "uncle": 3327,
    " jew": 3328,
    "rible": 3329,
    " grim": 3330,
    " thunder": 3331,
    "sion": 3332,
    " fever": 3333,
    " mur": 3334,
    "ushions": 3335,
    "oons": 3336,
    "rons": 3337,
    "Pier": 3338,
    "ilst": 3339,
    " spirit": 3340,
    " violent": 3341,
    " goddess": 3342,
    " charm": 3343,
    " gentleman": 3344,
    "Prosper": 3345,
    " page": 3346,
    " sound": 3347,
    " market": 3348,
    "place": 3349,
    " offic": 3350,
    "we": 3351,
    " foolish": 3352,
    " struck": 3353,
    " gust": 3354,
    " encounter": 3355,
    "May": 3356,
    " whe": 3357,
    " mant": 3358,
    " nupt": 3359,
    "Flow": 3360,
    " warri": 3361,
    " death": 3362,
    " greyh": 3363,
    " lords": 3364,
    " Anti": 3365,
    " hope": 3366,
    " shed": 3367,
    " conduct": 3368,
    " bath": 3369,
    " bal": 3370,
    "Den": 3371,
    " aid": 3372,
    "Less": 3373,
    "weigh": 3374,
    " outward": 3375,
    " number": 3376,
    " thanks": 3377,
    " ost": 3378,
    "Lie": 3379,
    "uten": 3380,
    "utenant": 3381,
    "bre": 3382,
    " bragg": 3383,
    " ming": 3384,
    "usty": 3385,
    " plebe": 3386,
    " overt": 3387,
    " conceal": 3388,
    "ucement": 3389,
    " hide": 3390,
    " top": 3391,
    " reward": 3392,
    " tent": 3393,
    " distrib": 3394,
    " pay": 3395,
    " courts": 3396,
    " false": 3397,
    " steel": 3398,
    " covert": 3399,
    " wash": 3400,
    " diet": 3401,
    " reason": 3402,
    " trim": 3403,
    " MAR": 3404,
    "ORIO": 3405,
    "ORIOLAN": 3406,
    "ORIOLANUS": 3407,
    "Ca": 3408,
    "anus": 3409,
    "beit": 3410,
    "Must": 3411,
    "Ref": 3412,
    "ometime": 3413,
    "whelm": 3414,
    "Condition": 3415,
    " treat": 3416,
    " oft": 3417,
    " crush": 3418,
    " force": 3419,
    " craft": 3420,
    " devil": 3421,
    " stain": 3422,
    " its": 3423,
    "uary": 3424,
    "Em": 3425,
    "osp": 3426,
    "earn": 3427,
    "bring": 3428,
    " spur": 3429,
    " journey": 3430,
    "urer": 3431,
    "noble": 3432,
    " blame": 3433,
    "ilities": 3434,
    " tow": 3435,
    " brace": 3436,
    "proud": 3437,
    " magist": 3438,
    "rates": 3439,
    "ias": 3440,
    "Men": 3441,
    "loves": 3442,
    " imper": 3443,
    "favour": 3444,
    " butt": 3445,
    " morn": 3446,
    "eeting": 3447,
    " Ly": 3448,
    "urg": 3449,
    " worsh": 3450,
    "deliver": 3451,
    " syll": 3452,
    "uities": 3453,
    " foren": 3454,
    "cause": 3455,
    "rovers": 3456,
    "roversy": 3457,
    " chamber": 3458,
    "stood": 3459,
    "bench": 3460,
    "enc": 3461,
    "ushion": 3462,
    " estim": 3463,
    " De": 3464,
    "alion": 3465,
    "itary": 3466,
    " herds": 3467,
    " prescri": 3468,
    "vict": 3469,
    " discipl": 3470,
    " gold": 3471,
    "action": 3472,
    " ay": 3473,
    "oulder": 3474,
    "ulse": 3475,
    "arquin": 3476,
    "Know": 3477,
    " won": 3478,
    "ieving": 3479,
    "Coriol": 3480,
    " gracious": 3481,
    " weep": 3482,
    "Ever": 3483,
    " kitch": 3484,
    " lock": 3485,
    "ram": 3486,
    " ree": 3487,
    " smother": 3488,
    " complex": 3489,
    " agree": 3490,
    " seld": 3491,
    "Do": 3492,
    " among": 3493,
    " puff": 3494,
    "icely": 3495,
    "eeks": 3496,
    "bus": 3497,
    " whats": 3498,
    " grace": 3499,
    " ancient": 3500,
    " forget": 3501,
    " vest": 3502,
    " manner": 3503,
    " miss": 3504,
    " gent": 3505,
    " hat": 3506,
    "tied": 3507,
    " cam": 3508,
    " dry": 3509,
    " stub": 3510,
    " mat": 3511,
    "adies": 3512,
    " scarf": 3513,
    " handker": 3514,
    "fficer": 3515,
    "ships": 3516,
    " venge": 3517,
    " indiffer": 3518,
    "good": 3519,
    "dev": 3520,
    "net": 3521,
    "sil": 3522,
    "proof": 3523,
    " ear": 3524,
    " main": 3525,
    " grat": 3526,
    " service": 3527,
    " defect": 3528,
    " convent": 3529,
    "Incl": 3530,
    " advance": 3531,
    " alar": 3532,
    "things": 3533,
    " multip": 3534,
    " spawn": 3535,
    " It": 3536,
    "ifies": 3537,
    " counterpo": 3538,
    " At": 3539,
    " Amaz": 3540,
    " Amazon": 3541,
    " bestrid": 3542,
    " self": 3543,
    " woman": 3544,
    "ene": 3545,
    "Man": 3546,
    " sevent": 3547,
    " stopp": 3548,
    " vess": 3549,
    " enter": 3550,
    " shun": 3551,
    " rein": 3552,
    "forcement": 3553,
    " flesh": 3554,
    "igate": 3555,
    " perpet": 3556,
    " ease": 3557,
    "wards": 3558,
    " gown": 3559,
    "rage": 3560,
    " vo": 3561,
    " cer": 3562,
    " cerem": 3563,
    " form": 3564,
    "Show": 3565,
    "aching": 3566,
    "comm": 3567,
    " require": 3568,
    "tong": 3569,
    " accept": 3570,
    "strous": 3571,
    " black": 3572,
    " bald": 3573,
    " divers": 3574,
    " colour": 3575,
    "once": 3576,
    " poin": 3577,
    " soon": 3578,
    "say": 3579,
    " threes": 3580,
    "partic": 3581,
    " clean": 3582,
    "gain": 3583,
    "Kind": 3584,
    "beg": 3585,
    " alms": 3586,
    "igm": 3587,
    " scour": 3588,
    "estim": 3589,
    " insin": 3590,
    " insinu": 3591,
    "bew": 3592,
    " seal": 3593,
    " unsw": 3594,
    " mountain": 3595,
    "peer": 3596,
    "Six": 3597,
    " dischar": 3598,
    " dismiss": 3599,
    "outed": 3600,
    " speech": 3601,
    " scorn": 3602,
    " childish": 3603,
    "Fast": 3604,
    "ii": 3605,
    "late": 3606,
    "Stand": 3607,
    " choler": 3608,
    " confirm": 3609,
    " ungra": 3610,
    "occup": 3611,
    " lect": 3612,
    " Pub": 3613,
    " Qu": 3614,
    " commend": 3615,
    "usal": 3616,
    " stream": 3617,
    "guard": 3618,
    "Yield": 3619,
    "ribunes": 3620,
    " calm": 3621,
    " suppli": 3622,
    " sith": 3623,
    "tering": 3624,
    " dishonour": 3625,
    "alsely": 3626,
    "Tell": 3627,
    " rank": 3628,
    " behold": 3629,
    "ourish": 3630,
    " punish": 3631,
    " infirm": 3632,
    " patient": 3633,
    "iven": 3634,
    "orance": 3635,
    " bench": 3636,
    " Gree": 3637,
    " sup": 3638,
    " diso": 3639,
    " disobed": 3640,
    " recomp": 3641,
    " nav": 3642,
    " mot": 3643,
    " frank": 3644,
    "onation": 3645,
    " poll": 3646,
    " worship": 3647,
    " title": 3648,
    "annot": 3649,
    " discreet": 3650,
    " jump": 3651,
    " multit": 3652,
    "inous": 3653,
    " bere": 3654,
    " obed": 3655,
    "Out": 3656,
    "Hel": 3657,
    "Ediles": 3658,
    "apons": 3659,
    " bury": 3660,
    "inctly": 3661,
    "anges": 3662,
    " rock": 3663,
    " prud": 3664,
    " withdraw": 3665,
    " naught": 3666,
    " cure": 3667,
    " barb": 3668,
    " barbar": 3669,
    " litter": 3670,
    " por": 3671,
    "ithmet": 3672,
    "ithmetic": 3673,
    " interrup": 3674,
    " wat": 3675,
    " cloth": 3676,
    " Tiber": 3677,
    " loss": 3678,
    " danger": 3679,
    " book": 3680,
    " unn": 3681,
    " unnat": 3682,
    "Mort": 3683,
    " brand": 3684,
    " tig": 3685,
    " sack": 3686,
    " lang": 3687,
    "uage": 3688,
    " peril": 3689,
    " wild": 3690,
    " prec": 3691,
    " beam": 3692,
    " sight": 3693,
    " vass": 3694,
    "alse": 3695,
    " thwart": 3696,
    " rough": 3697,
    " remed": 3698,
    "cely": 3699,
    "icy": 3700,
    " adop": 3701,
    " companion": 3702,
    " promp": 3703,
    "astards": 3704,
    " bos": 3705,
    " inherit": 3706,
    " elo": 3707,
    " eloqu": 3708,
    "Hast": 3709,
    "Can": 3710,
    " mould": 3711,
    " harl": 3712,
    " harlot": 3713,
    " thro": 3714,
    " beggar": 3715,
    " bow": 3716,
    " Do": 3717,
    " mount": 3718,
    " trades": 3719,
    "Tyran": 3720,
    "nical": 3721,
    " accomp": 3722,
    " favour": 3723,
    "ogue": 3724,
    " contrad": 3725,
    " chaf": 3726,
    " chair": 3727,
    " tem": 3728,
    "List": 3729,
    " Pe": 3730,
    " consider": 3731,
    "Scr": 3732,
    " move": 3733,
    "swer": 3734,
    " fold": 3735,
    "utch": 3736,
    "Beat": 3737,
    " crim": 3738,
    " steep": 3739,
    "agab": 3740,
    "agabond": 3741,
    " pent": 3742,
    " courage": 3743,
    " reek": 3744,
    " uncertain": 3745,
    " despair": 3746,
    "cepts": 3747,
    " conn": 3748,
    "abours": 3749,
    "Dro": 3750,
    " venom": 3751,
    " sad": 3752,
    "onely": 3753,
    " exceed": 3754,
    " expost": 3755,
    " month": 3756,
    " vast": 3757,
    "ruised": 3758,
    " behalf": 3759,
    "Requ": 3760,
    " fox": 3761,
    "knit": 3762,
    " faint": 3763,
    " Adri": 3764,
    "icanor": 3765,
    "people": 3766,
    " fitt": 3767,
    "aries": 3768,
    " bille": 3769,
    " entertain": 3770,
    " heir": 3771,
    "Direct": 3772,
    " slipp": 3773,
    "Uns": 3774,
    " egg": 3775,
    " master": 3776,
    "rt": 3777,
    " troubles": 3778,
    " marvell": 3779,
    "mands": 3780,
    "pare": 3781,
    "Great": 3782,
    " mischief": 3783,
    " witness": 3784,
    "mitted": 3785,
    "Mist": 3786,
    "anker": 3787,
    " sple": 3788,
    " fi": 3789,
    "Long": 3790,
    "inters": 3791,
    " mistress": 3792,
    "Best": 3793,
    "ride": 3794,
    " hew": 3795,
    "elve": 3796,
    "Dream": 3797,
    "Unbuck": 3798,
    " exper": 3799,
    "ienced": 3800,
    " knock": 3801,
    " rud": 3802,
    " fright": 3803,
    "ault": 3804,
    "thw": 3805,
    " carbon": 3806,
    " cannib": 3807,
    " u": 3808,
    "pper": 3809,
    "question": 3810,
    "ourse": 3811,
    "esterday": 3812,
    " dur": 3813,
    " forward": 3814,
    "tail": 3815,
    "mak": 3816,
    "makers": 3817,
    "xy": 3818,
    "ulled": 3819,
    "isher": 3820,
    " cuck": 3821,
    "Diss": 3822,
    " commonw": 3823,
    " commonweal": 3824,
    "Cry": 3825,
    " sole": 3826,
    " prevent": 3827,
    "Dest": 3828,
    " peep": 3829,
    " record": 3830,
    "acious": 3831,
    "Ra": 3832,
    "likely": 3833,
    " contrar": 3834,
    "oci": 3835,
    "umed": 3836,
    "aughters": 3837,
    "oses": 3838,
    " sum": 3839,
    "flies": 3840,
    " garl": 3841,
    " fruit": 3842,
    " Who": 3843,
    " crafts": 3844,
    "usters": 3845,
    " dism": 3846,
    " witch": 3847,
    "craft": 3848,
    " sold": 3849,
    "lier": 3850,
    " appar": 3851,
    " fish": 3852,
    " aust": 3853,
    " interpret": 3854,
    " nay": 3855,
    " acquaint": 3856,
    "isome": 3857,
    " grief": 3858,
    " unkind": 3859,
    " priest": 3860,
    " watch": 3861,
    "aoler": 3862,
    " vain": 3863,
    "alle": 3864,
    "allel": 3865,
    " ampl": 3866,
    "umbled": 3867,
    " faction": 3868,
    "owsoever": 3869,
    "inner": 3870,
    "women": 3871,
    " pals": 3872,
    "cess": 3873,
    "execution": 3874,
    " repri": 3875,
    "irrah": 3876,
    "pres": 3877,
    "thy": 3878,
    "wr": 3879,
    " affair": 3880,
    " familiar": 3881,
    "nother": 3882,
    " tom": 3883,
    " whisper": 3884,
    " fresh": 3885,
    " infring": 3886,
    " Oly": 3887,
    " Olymp": 3888,
    " sorrow": 3889,
    " dull": 3890,
    "perly": 3891,
    "Betw": 3892,
    " parent": 3893,
    "Fill": 3894,
    " ced": 3895,
    "Murder": 3896,
    " impossib": 3897,
    "ola": 3898,
    " frost": 3899,
    " snow": 3900,
    " ep": 3901,
    " epit": 3902,
    " flaw": 3903,
    " Think": 3904,
    "ortunate": 3905,
    " comfor": 3906,
    "rains": 3907,
    " recre": 3908,
    " palm": 3909,
    " wait": 3910,
    "Young": 3911,
    " recon": 3912,
    " reconc": 3913,
    " attempt": 3914,
    " sul": 3915,
    " sulph": 3916,
    " sulphur": 3917,
    "haps": 3918,
    " unjust": 3919,
    "longs": 3920,
    " convenient": 3921,
    " compassion": 3922,
    " confeder": 3923,
    " gru": 3924,
    " eight": 3925,
    " wal": 3926,
    "attery": 3927,
    "lexander": 3928,
    " etern": 3929,
    " milk": 3930,
    " dislo": 3931,
    " recomfort": 3932,
    " ps": 3933,
    " psal": 3934,
    " fif": 3935,
    "umn": 3936,
    "Ac": 3937,
    " patron": 3938,
    "Unsh": 3939,
    "aper": 3940,
    " hers": 3941,
    " Cons": 3942,
    " Consp": 3943,
    " Conspir": 3944,
    "oison": 3945,
    " height": 3946,
    "Sedu": 3947,
    " unsway": 3948,
    "ooping": 3949,
    " joint": 3950,
    " accompl": 3951,
    " rhe": 3952,
    "Spl": 3953,
    " pronoun": 3954,
    " attemp": 3955,
    "bery": 3956,
    " stol": 3957,
    " betray": 3958,
    "sel": 3959,
    "Measure": 3960,
    "eces": 3961,
    "Provo": 3962,
    " loyal": 3963,
    "EST": 3964,
    " York": 3965,
    " oce": 3966,
    " monum": 3967,
    " stern": 3968,
    " nim": 3969,
    "asciv": 3970,
    "ascivious": 3971,
    " majest": 3972,
    " nym": 3973,
    " nymph": 3974,
    " dissemb": 3975,
    "inish": 3976,
    " deform": 3977,
    " drun": 3978,
    " drunken": 3979,
    " prophec": 3980,
    "larence": 3981,
    " Ed": 3982,
    "LARENCE": 3983,
    "fathers": 3984,
    " protest": 3985,
    "izard": 3986,
    " disin": 3987,
    " disinher": 3988,
    " Wood": 3989,
    "ville": 3990,
    " secure": 3991,
    "dge": 3992,
    " dub": 3993,
    "BUR": 3994,
    "BURY": 3995,
    " strait": 3996,
    " confer": 3997,
    " secret": 3998,
    "antime": 3999,
    " impr": 4000,
    " imprison": 4001,
    "imple": 4002,
    "AST": 4003,
    "ASTING": 4004,
    "ASTINGS": 4005,
    " buzz": 4006,
    " abro": 4007,
    "anch": 4008,
    " Paul": 4009,
    "much": 4010,
    " argum": 4011,
    " marry": 4012,
    " Warwick": 4013,
    " reach": 4014,
    "LA": 4015,
    "DY": 4016,
    " shroud": 4017,
    "imely": 4018,
    "oor": 4019,
    "ughter": 4020,
    "same": 4021,
    " wretched": 4022,
    " ug": 4023,
    " unhapp": 4024,
    "enry": 4025,
    " magic": 4026,
    " hal": 4027,
    "Foul": 4028,
    " exclaim": 4029,
    "attern": 4030,
    " conge": 4031,
    "urderer": 4032,
    "safe": 4033,
    " leisure": 4034,
    " slew": 4035,
    "Que": 4036,
    "Queen": 4037,
    "garet": 4038,
    " provo": 4039,
    " hedge": 4040,
    " mild": 4041,
    " dun": 4042,
    "geon": 4043,
    "omew": 4044,
    "omewh": 4045,
    "omewhat": 4046,
    " caus": 4047,
    " Plantagen": 4048,
    "ereft": 4049,
    " basil": 4050,
    " basilis": 4051,
    " remorse": 4052,
    "iteous": 4053,
    " Cliff": 4054,
    " sob": 4055,
    " sor": 4056,
    "Teach": 4057,
    " sharp": 4058,
    " access": 4059,
    " encomp": 4060,
    " encompass": 4061,
    " encl": 4062,
    " repent": 4063,
    "Gr": 4064,
    "agine": 4065,
    " mood": 4066,
    "ramed": 4067,
    " adorn": 4068,
    " glass": 4069,
    "VERS": 4070,
    " Glouc": 4071,
    " conclud": 4072,
    "uckingham": 4073,
    "UCKING": 4074,
    "UCKINGHAM": 4075,
    "mond": 4076,
    "rog": 4077,
    "anders": 4078,
    " amend": 4079,
    " Did": 4080,
    " deceive": 4081,
    " cog": 4082,
    " ranc": 4083,
    "Aim": 4084,
    " gather": 4085,
    " strip": 4086,
    " blunt": 4087,
    "gland": 4088,
    "vouch": 4089,
    " Alb": 4090,
    " Jes": 4091,
    "fool": 4092,
    " pir": 4093,
    "bles": 4094,
    "DOR": 4095,
    "SET": 4096,
    "orthumberland": 4097,
    "arling": 4098,
    "live": 4099,
    "orset": 4100,
    " dagg": 4101,
    " accident": 4102,
    "ignation": 4103,
    " worm": 4104,
    " hog": 4105,
    "ivity": 4106,
    " rag": 4107,
    " whet": 4108,
    " bunch": 4109,
    " lun": 4110,
    " dash": 4111,
    " dall": 4112,
    "Witness": 4113,
    " bright": 4114,
    " asc": 4115,
    " sky": 4116,
    "Sin": 4117,
    " prophet": 4118,
    "Marry": 4119,
    "atesby": 4120,
    " brawl": 4121,
    "aughan": 4122,
    "Talk": 4123,
    " tod": 4124,
    "ooting": 4125,
    " bill": 4126,
    " anch": 4127,
    " pear": 4128,
    "valued": 4129,
    " inhab": 4130,
    " reflect": 4131,
    "imy": 4132,
    " secre": 4133,
    " angel": 4134,
    " fleet": 4135,
    "Envir": 4136,
    "venged": 4137,
    " toil": 4138,
    "Ho": 4139,
    " ted": 4140,
    " tedious": 4141,
    "dam": 4142,
    "damn": 4143,
    "Remember": 4144,
    " sham": 4145,
    "obst": 4146,
    "Er": 4147,
    "Err": 4148,
    "rip": 4149,
    " indirect": 4150,
    "Bless": 4151,
    " sav": 4152,
    " Pil": 4153,
    " slack": 4154,
    "rial": 4155,
    "DW": 4156,
    "DWARD": 4157,
    " redeem": 4158,
    " dally": 4159,
    " hid": 4160,
    " unfeign": 4161,
    " interchange": 4162,
    "uteous": 4163,
    " cord": 4164,
    " heap": 4165,
    "ittingly": 4166,
    " Merc": 4167,
    " tard": 4168,
    "mand": 4169,
    "Near": 4170,
    "uspic": 4171,
    "uspicion": 4172,
    " Nor": 4173,
    "folk": 4174,
    " Ox": 4175,
    " lap": 4176,
    " thin": 4177,
    "DU": 4178,
    "ORK": 4179,
    " orph": 4180,
    "ousins": 4181,
    "Dev": 4182,
    " impeach": 4183,
    " dug": 4184,
    " trag": 4185,
    " sap": 4186,
    " mirr": 4187,
    "emblance": 4188,
    " plent": 4189,
    " lent": 4190,
    " beth": 4191,
    " dimm": 4192,
    " meek": 4193,
    "Forth": 4194,
    " breach": 4195,
    "istory": 4196,
    "Neigh": 4197,
    " non": 4198,
    " counc": 4199,
    " haught": 4200,
    "Ens": 4201,
    "ARCH": 4202,
    "BIS": 4203,
    "BISH": 4204,
    "BISHOP": 4205,
    "ortham": 4206,
    "orthampt": 4207,
    "orthampton": 4208,
    "tony": 4209,
    "Str": 4210,
    " slow": 4211,
    " shrew": 4212,
    " shrewd": 4213,
    "omas": 4214,
    "ulting": 4215,
    " mass": 4216,
    " toss": 4217,
    "omest": 4218,
    "osterous": 4219,
    " distinguish": 4220,
    " May": 4221,
    " card": 4222,
    "Pers": 4223,
    "Persu": 4224,
    "ARDIN": 4225,
    "atory": 4226,
    " seiz": 4227,
    "journ": 4228,
    "esar": 4229,
    "Success": 4230,
    " moral": 4231,
    " kins": 4232,
    " prett": 4233,
    "riously": 4234,
    "Bold": 4235,
    " impart": 4236,
    "iam": 4237,
    "anley": 4238,
    " helm": 4239,
    " upright": 4240,
    " misp": 4241,
    " mispla": 4242,
    " traged": 4243,
    "repared": 4244,
    "TAN": 4245,
    "TANLEY": 4246,
    " stag": 4247,
    " misdoubt": 4248,
    "LORD": 4249,
    "uiv": 4250,
    "uivant": 4251,
    "Gramer": 4252,
    "ohn": 4253,
    "AT": 4254,
    "CLI": 4255,
    "CLIF": 4256,
    "CLIFF": 4257,
    "atc": 4258,
    "atcliff": 4259,
    " subject": 4260,
    "AUGH": 4261,
    "AUGHAN": 4262,
    "atal": 4263,
    "LY": 4264,
    " neglect": 4265,
    " Ely": 4266,
    " Hol": 4267,
    " straw": 4268,
    "berries": 4269,
    " garden": 4270,
    "ifs": 4271,
    " mom": 4272,
    " moment": 4273,
    "brid": 4274,
    "bridge": 4275,
    " Tur": 4276,
    "Proceed": 4277,
    " Guild": 4278,
    "hall": 4279,
    " bastard": 4280,
    " lu": 4281,
    "atiate": 4282,
    "aments": 4283,
    "learn": 4284,
    "vener": 4285,
    " engross": 4286,
    "leven": 4287,
    " yest": 4288,
    " greed": 4289,
    "otland": 4290,
    "ounty": 4291,
    " repreh": 4292,
    " hall": 4293,
    "ueless": 4294,
    "Play": 4295,
    "Suspect": 4296,
    " relig": 4297,
    " beads": 4298,
    " contem": 4299,
    " contempl": 4300,
    " clergy": 4301,
    " orn": 4302,
    "Fam": 4303,
    " interrupt": 4304,
    "Neg": 4305,
    "amy": 4306,
    " substit": 4307,
    " emper": 4308,
    " veh": 4309,
    "igation": 4310,
    "init": 4311,
    " nice": 4312,
    " betroth": 4313,
    "OTH": 4314,
    " burthen": 4315,
    " scandal": 4316,
    "Master": 4317,
    " que": 4318,
    " West": 4319,
    "Despite": 4320,
    " round": 4321,
    " sull": 4322,
    " RI": 4323,
    "CHARD": 4324,
    " II": 4325,
    " consequ": 4326,
    " tut": 4327,
    " freez": 4328,
    " immed": 4329,
    "iately": 4330,
    " unres": 4331,
    "Gold": 4332,
    "yrrel": 4333,
    "TY": 4334,
    " distur": 4335,
    " disturb": 4336,
    "etters": 4337,
    " Ex": 4338,
    "ighton": 4339,
    " ros": 4340,
    " replen": 4341,
    " Bret": 4342,
    " jol": 4343,
    " Welsh": 4344,
    "menting": 4345,
    "otent": 4346,
    " unrest": 4347,
    "lawfully": 4348,
    " drunk": 4349,
    "work": 4350,
    " carn": 4351,
    "ky": 4352,
    "Us": 4353,
    "Usur": 4354,
    "Wind": 4355,
    " cli": 4356,
    " succeed": 4357,
    "ughters": 4358,
    "clamations": 4359,
    "etchy": 4360,
    "fast": 4361,
    "Virt": 4362,
    "Sland": 4363,
    "prise": 4364,
    " cover": 4365,
    "Flatter": 4366,
    " endow": 4367,
    " therewith": 4368,
    " unadvised": 4369,
    " step": 4370,
    " liqu": 4371,
    " transform": 4372,
    " everl": 4373,
    "Plain": 4374,
    " sty": 4375,
    " string": 4376,
    "Prof": 4377,
    " knight": 4378,
    "Imm": 4379,
    "aculate": 4380,
    " desol": 4381,
    "fond": 4382,
    "Rid": 4383,
    " puiss": 4384,
    " admir": 4385,
    "alis": 4386,
    "alisbury": 4387,
    "agate": 4388,
    "uct": 4389,
    " advert": 4390,
    "ney": 4391,
    " Kent": 4392,
    "fords": 4393,
    " proclaim": 4394,
    "eward": 4395,
    "clamation": 4396,
    " Br": 4397,
    " Christop": 4398,
    " Christopher": 4399,
    "embroke": 4400,
    "bot": 4401,
    " redoub": 4402,
    " dooms": 4403,
    " resp": 4404,
    " feign": 4405,
    "gement": 4406,
    " Leic": 4407,
    "BER": 4408,
    "NT": 4409,
    "urrey": 4410,
    "URREY": 4411,
    "ighter": 4412,
    "NOR": 4413,
    " tre": 4414,
    "andon": 4415,
    "Lim": 4416,
    "Ghost": 4417,
    "lict": 4418,
    " dir": 4419,
    "Find": 4420,
    " ward": 4421,
    " ransom": 4422,
    "pse": 4423,
    "Arm": 4424,
    " vaun": 4425,
    "Resc": 4426,
    "Sla": 4427,
    "Inter": 4428,
    " submiss": 4429,
    "unction": 4430,
    "ivil": 4431,
    "owb": 4432,
    "owbray": 4433,
    "OH": 4434,
    "OHN": 4435,
    " ire": 4436,
    "HEN": 4437,
    "RY": 4438,
    "OMAS": 4439,
    "OW": 4440,
    "Add": 4441,
    "otten": 4442,
    " appell": 4443,
    "rav": 4444,
    " chival": 4445,
    "icing": 4446,
    "verns": 4447,
    " scept": 4448,
    " partial": 4449,
    "oling": 4450,
    "olingb": 4451,
    "olingbroke": 4452,
    " tresp": 4453,
    "enerate": 4454,
    "Forget": 4455,
    " doct": 4456,
    " chest": 4457,
    " Lam": 4458,
    " shar": 4459,
    " champ": 4460,
    " misfort": 4461,
    "ah": 4462,
    "umerle": 4463,
    " spright": 4464,
    "Am": 4465,
    "Except": 4466,
    " pilgrim": 4467,
    "ored": 4468,
    " falcon": 4469,
    " daint": 4470,
    "bish": 4471,
    " amaz": 4472,
    "ancing": 4473,
    " couch": 4474,
    " combat": 4475,
    "oused": 4476,
    "eeling": 4477,
    " boo": 4478,
    " sep": 4479,
    " sepul": 4480,
    " sepulch": 4481,
    " stray": 4482,
    "Short": 4483,
    " strict": 4484,
    " hoard": 4485,
    "resher": 4486,
    " bir": 4487,
    " grass": 4488,
    "aucas": 4489,
    " fantast": 4490,
    "ushy": 4491,
    "agot": 4492,
    " farm": 4493,
    "denly": 4494,
    " unde": 4495,
    " riot": 4496,
    "uming": 4497,
    "adise": 4498,
    "ensive": 4499,
    "Ren": 4500,
    "iege": 4501,
    " parch": 4502,
    " bonds": 4503,
    " waste": 4504,
    "rands": 4505,
    "randsire": 4506,
    "lord": 4507,
    " unrever": 4508,
    " flower": 4509,
    "LAND": 4510,
    " bank": 4511,
    " roy": 4512,
    "alties": 4513,
    "des": 4514,
    "hire": 4515,
    "SS": 4516,
    "ILLO": 4517,
    "arely": 4518,
    " geld": 4519,
    "prom": 4520,
    "promise": 4521,
    " tax": 4522,
    " Fr": 4523,
    " Franc": 4524,
    "thern": 4525,
    "Imp": 4526,
    "pur": 4527,
    "arming": 4528,
    "inary": 4529,
    " der": 4530,
    "ifted": 4531,
    " Per": 4532,
    "wife": 4533,
    " coz": 4534,
    " belie": 4535,
    "Serv": 4536,
    "uchess": 4537,
    " woeful": 4538,
    "ruth": 4539,
    "pray": 4540,
    " disorder": 4541,
    "Proportion": 4542,
    " waver": 4543,
    "estersh": 4544,
    "estershire": 4545,
    "ERC": 4546,
    "che": 4547,
    "quer": 4548,
    " unthrif": 4549,
    " chall": 4550,
    "ARL": 4551,
    " mete": 4552,
    " disf": 4553,
    " disfig": 4554,
    " divor": 4555,
    " holid": 4556,
    " broo": 4557,
    " raven": 4558,
    " annoy": 4559,
    " sting": 4560,
    " conjur": 4561,
    "urity": 4562,
    "comfortable": 4563,
    " search": 4564,
    " thie": 4565,
    "ipod": 4566,
    "ipodes": 4567,
    "beards": 4568,
    " scal": 4569,
    "ieldy": 4570,
    " distaff": 4571,
    " Jud": 4572,
    " Judas": 4573,
    " execut": 4574,
    "queath": 4575,
    " haun": 4576,
    " pomp": 4577,
    "Inf": 4578,
    " oppress": 4579,
    " beseem": 4580,
    "Roy": 4581,
    " contain": 4582,
    "arlis": 4583,
    "arlisle": 4584,
    " gorge": 4585,
    " girl": 4586,
    " spray": 4587,
    "fty": 4588,
    "upturn": 4589,
    "upturned": 4590,
    " dress": 4591,
    " bough": 4592,
    " belong": 4593,
    " forbear": 4594,
    "IT": 4595,
    " symp": 4596,
    " sympath": 4597,
    "Fit": 4598,
    "zwater": 4599,
    "Over": 4600,
    " Ven": 4601,
    "Adop": 4602,
    "orst": 4603,
    "fend": 4604,
    " clim": 4605,
    " tumult": 4606,
    "cure": 4607,
    "asant": 4608,
    " wink": 4609,
    " shin": 4610,
    "bbot": 4611,
    " thorn": 4612,
    "Whate": 4613,
    " ale": 4614,
    " wherewith": 4615,
    "ivering": 4616,
    "Weep": 4617,
    " vio": 4618,
    " lan": 4619,
    "Rec": 4620,
    " foun": 4621,
    "flow": 4622,
    "ggar": 4623,
    " transg": 4624,
    " hypo": 4625,
    " hypoc": 4626,
    "pardon": 4627,
    " chopp": 4628,
    "EX": 4629,
    " ham": 4630,
    " scru": 4631,
    " whate": 4632,
    " Music": 4633,
    " dial": 4634,
    " cleans": 4635,
    " peer": 4636,
    " rail": 4637,
    "enching": 4638,
    " stagg": 4639,
    " discours": 4640,
    " Bro": 4641,
    " Se": 4642,
    " overth": 4643,
    "inkle": 4644,
    "SON": 4645,
    "regory": 4646,
    " runn": 4647,
    "BAL": 4648,
    "volio": 4649,
    " Capu": 4650,
    "PU": 4651,
    "PUL": 4652,
    "PULET": 4653,
    "ONTAG": 4654,
    "ONTAGUE": 4655,
    " Ver": 4656,
    " Tyb": 4657,
    " ded": 4658,
    "icate": 4659,
    " muff": 4660,
    "shapen": 4661,
    "sick": 4662,
    "Grief": 4663,
    " spark": 4664,
    "upid": 4665,
    " mas": 4666,
    " reckon": 4667,
    " bride": 4668,
    "appar": 4669,
    "ril": 4670,
    " sho": 4671,
    "Sign": 4672,
    "ino": 4673,
    "widow": 4674,
    "utio": 4675,
    " Valent": 4676,
    "osal": 4677,
    "osaline": 4678,
    " Luc": 4679,
    " Hel": 4680,
    " heret": 4681,
    "see": 4682,
    "usan": 4683,
    " Ju": 4684,
    "gent": 4685,
    " pant": 4686,
    "Jul": 4687,
    " proli": 4688,
    " prolix": 4689,
    " sha": 4690,
    " cand": 4691,
    " wagon": 4692,
    "oppers": 4693,
    " crick": 4694,
    "meat": 4695,
    "athom": 4696,
    "Drum": 4697,
    "utt": 4698,
    " carri": 4699,
    "asy": 4700,
    "onstant": 4701,
    " steer": 4702,
    " On": 4703,
    " Serv": 4704,
    "stool": 4705,
    "court": 4706,
    "heer": 4707,
    "risk": 4708,
    " Eth": 4709,
    " Ethi": 4710,
    "Bea": 4711,
    "bes": 4712,
    " Petru": 4713,
    "hyme": 4714,
    "blind": 4715,
    "het": 4716,
    "reth": 4717,
    "Hencefor": 4718,
    " pror": 4719,
    "stantial": 4720,
    " hoar": 4721,
    " medic": 4722,
    "enedic": 4723,
    "enedicite": 4724,
    " distemper": 4725,
    "isely": 4726,
    "Tor": 4727,
    " minim": 4728,
    " dow": 4729,
    " Cle": 4730,
    " hild": 4731,
    "eye": 4732,
    " ship": 4733,
    "velling": 4734,
    "pery": 4735,
    " penny": 4736,
    "emary": 4737,
    "warr": 4738,
    " powder": 4739,
    " loaths": 4740,
    " delicious": 4741,
    " moder": 4742,
    " blaz": 4743,
    "ceit": 4744,
    " cou": 4745,
    " minst": 4746,
    " minstrel": 4747,
    "disc": 4748,
    "beat": 4749,
    " unluck": 4750,
    " mart": 4751,
    "Immed": 4752,
    "perform": 4753,
    "hoods": 4754,
    " unman": 4755,
    " mans": 4756,
    " fest": 4757,
    "Vile": 4758,
    "utiful": 4759,
    "inest": 4760,
    "qua": 4761,
    "itae": 4762,
    "ciful": 4763,
    " purg": 4764,
    "idity": 4765,
    "angle": 4766,
    " simpl": 4767,
    "ubber": 4768,
    "ubbering": 4769,
    " removed": 4770,
    "ancell": 4771,
    "omy": 4772,
    "Dig": 4773,
    "Happ": 4774,
    "Beg": 4775,
    "ursday": 4776,
    " nighting": 4777,
    "Night": 4778,
    "bearer": 4779,
    " Cy": 4780,
    "unting": 4781,
    "zz": 4782,
    " suns": 4783,
    "ossed": 4784,
    " ack": 4785,
    "raise": 4786,
    " hencefor": 4787,
    "even": 4788,
    "oder": 4789,
    " stark": 4790,
    "can": 4791,
    "urnished": 4792,
    "isons": 4793,
    " behove": 4794,
    " stif": 4795,
    " Angel": 4796,
    " whores": 4797,
    " deflow": 4798,
    " detest": 4799,
    " dole": 4800,
    "umps": 4801,
    " Re": 4802,
    "abouts": 4803,
    "Ap": 4804,
    " duc": 4805,
    "Unh": 4806,
    " villan": 4807,
    "Obey": 4808,
    " sheet": 4809,
    "arted": 4810,
    " clear": 4811,
    "ixed": 4812,
    "oming": 4813,
    " horsem": 4814,
    " Som": 4815,
    "erset": 4816,
    " Rog": 4817,
    " Roger": 4818,
    "auph": 4819,
    "auphin": 4820,
    " cav": 4821,
    " presum": 4822,
    "urally": 4823,
    " envir": 4824,
    " suffic": 4825,
    "antages": 4826,
    "erm": 4827,
    " outstret": 4828,
    " crook": 4829,
    " Jer": 4830,
    " wra": 4831,
    "Hard": 4832,
    "arce": 4833,
    "unders": 4834,
    "rolled": 4835,
    " irks": 4836,
    "raign": 4837,
    "GE": 4838,
    " pang": 4839,
    " clang": 4840,
    "ugging": 4841,
    " ew": 4842,
    " shear": 4843,
    " foem": 4844,
    "think": 4845,
    "gone": 4846,
    " tough": 4847,
    "mind": 4848,
    " wheres": 4849,
    "reech": 4850,
    " Keep": 4851,
    "ewis": 4852,
    "qual": 4853,
    " X": 4854,
    " daunt": 4855,
    " suffice": 4856,
    " suppress": 4857,
    " pull": 4858,
    " stam": 4859,
    " renounce": 4860,
    " ambass": 4861,
    " ambassad": 4862,
    " Hung": 4863,
    " forewarn": 4864,
    "friends": 4865,
    "untsman": 4866,
    "landers": 4867,
    "judged": 4868,
    " confisc": 4869,
    " presag": 4870,
    "aketh": 4871,
    " Bel": 4872,
    " Barn": 4873,
    " ram": 4874,
    " Gall": 4875,
    " indust": 4876,
    " unsk": 4877,
    " magn": 4878,
    " pett": 4879,
    " Cret": 4880,
    "formed": 4881,
    "eeth": 4882,
    "amillo": 4883,
    " Bohem": 4884,
    "icence": 4885,
    "intellig": 4886,
    "uffic": 4887,
    "embra": 4888,
    "sub": 4889,
    "ENES": 4890,
    "mion": 4891,
    "mione": 4892,
    " gest": 4893,
    "ontes": 4894,
    "ledged": 4895,
    " Gra": 4896,
    "bbed": 4897,
    "raction": 4898,
    "piece": 4899,
    " neglig": 4900,
    " dise": 4901,
    "Account": 4902,
    " Pol": 4903,
    "ixen": 4904,
    "ixenes": 4905,
    "motion": 4906,
    " nost": 4907,
    "Remain": 4908,
    " Bes": 4909,
    "aces": 4910,
    "duce": 4911,
    "omenes": 4912,
    "INA": 4913,
    " Em": 4914,
    "mouth": 4915,
    "pass": 4916,
    " cel": 4917,
    " avail": 4918,
    " profan": 4919,
    " boil": 4920,
    "ancies": 4921,
    "iner": 4922,
    "aby": 4923,
    "Shepher": 4924,
    "allowed": 4925,
    "hel": 4926,
    " tink": 4927,
    "virt": 4928,
    " bail": 4929,
    "put": 4930,
    " celebr": 4931,
    "roses": 4932,
    "oric": 4933,
    " tur": 4934,
    "opsa": 4935,
    "pipe": 4936,
    "sever": 4937,
    "bawd": 4938,
    "fume": 4939,
    " stomach": 4940,
    " plack": 4941,
    "ball": 4942,
    "requ": 4943,
    " gamb": 4944,
    "omely": 4945,
    "ardel": 4946,
    "oft": 4947,
    "aze": 4948,
    "feel": 4949,
    "kest": 4950,
    "Respect": 4951,
    "Unf": 4952,
    "iby": 4953,
    "answer": 4954,
    "avouch": 4955,
    "inst": 4956,
    "comb": 4957,
    "confess": 4958,
    "sign": 4959,
    "colour": 4960,
    " bloss": 4961,
    "aults": 4962,
    "plore": 4963,
    "ENTIO": 4964,
    "scalus": 4965,
    " instit": 4966,
    "ienn": 4967,
    "ienna": 4968,
    " concern": 4969,
    "LUC": 4970,
    " Com": 4971,
    "laudio": 4972,
    "iett": 4973,
    "ietta": 4974,
    "POM": 4975,
    "POMP": 4976,
    "EY": 4977,
    " seed": 4978,
    "prison": 4979,
    "chery": 4980,
    " emm": 4981,
    "FR": 4982,
    "play": 4983,
    " blas": 4984,
    " blasph": 4985,
    " til": 4986,
    "efactors": 4987,
    "ornication": 4988,
    " unclean": 4989,
    "annib": 4990,
    "annibal": 4991,
    "ompey": 4992,
    "Maid": 4993,
    " ess": 4994,
    "Cor": 4995,
    " Marian": 4996,
    "reder": 4997,
    "rederick": 4998,
    " stink": 4999,
    "monger": 5000,
    " testimon": 5001,
    "labour": 5002,
    "IAN": 5003,
    " dawn": 5004,
    " Sly": 5005,
    "ranio": 5006,
    "isa": 5007,
    "athar": 5008,
    "atharina": 5009,
    "HORT": 5010,
    "HORTEN": 5011,
    " Bianc": 5012,
    "aptista": 5013,
    "masters": 5014,
    "ortens": 5015,
    "ortensio": 5016,
    "remio": 5017,
    " Florent": 5018,
    "rumio": 5019,
    "chio": 5020,
    "knock": 5021,
    "tonio": 5022,
    "First": 5023,
    " Citizen": 5024,
    "Before": 5025,
    " further": 5026,
    "All": 5027,
    "Speak": 5028,
    "You": 5029,
    " are": 5030,
    " resolved": 5031,
    " rather": 5032,
    " die": 5033,
    " than": 5034,
    " famish": 5035,
    "Resolved": 5036,
    " you": 5037,
    " Caius": 5038,
    " Marcius": 5039,
    " enemy": 5040,
    " people": 5041,
    "Let": 5042,
    " kill": 5043,
    " him": 5044,
    " and": 5045,
    " have": 5046,
    " our": 5047,
    " price": 5048,
    " verdict": 5049,
    " talking": 5050,
    " it": 5051,
    " done": 5052,
    " away": 5053,
    "Sec": 5054,
    "Second": 5055,
    "One": 5056,
    " word": 5057,
    " citizens": 5058,
    " accounted": 5059,
    " patricians": 5060,
    "What": 5061,
    " authority": 5062,
    " surfeits": 5063,
    " would": 5064,
    " relieve": 5065,
    " if": 5066,
    " they": 5067,
    "would": 5068,
    " superfluity": 5069,
    " while": 5070,
    " were": 5071,
    " guess": 5072,
    " relieved": 5073,
    " humanely": 5074,
    " too": 5075,
    " leanness": 5076,
    " that": 5077,
    "afflicts": 5078,
    " object": 5079,
    " of": 5080,
    " misery": 5081,
    "invent": 5082,
    "inventory": 5083,
    " particularise": 5084,
    " their": 5085,
    " abundance": 5086,
    "sufferance": 5087,
    " gain": 5088,
    " Let": 5089,
    " this": 5090,
    " pikes": 5091,
    " ere": 5092,
    " become": 5093,
    " rakes": 5094,
    " gods": 5095,
    "speak": 5096,
    " hunger": 5097,
    " bread": 5098,
    "Would": 5099,
    " especially": 5100,
    " against": 5101,
    "Against": 5102,
    " first": 5103,
    " very": 5104,
    " dog": 5105,
    " commonalty": 5106,
    "Consider": 5107,
    " what": 5108,
    " services": 5109,
    " has": 5110,
    " his": 5111,
    "Very": 5112,
    " well": 5113,
    " could": 5114,
    " content": 5115,
    " give": 5116,
    " pays": 5117,
    " himself": 5118,
    " being": 5119,
    "Nay": 5120,
    " maliciously": 5121,
    " unto": 5122,
    " hath": 5123,
    " famously": 5124,
    " did": 5125,
    " though": 5126,
    "conscienced": 5127,
    " mother": 5128,
    " partly": 5129,
    " which": 5130,
    " till": 5131,
    " altitude": 5132,
    " virtue": 5133,
    " cannot": 5134,
    " nature": 5135,
    " account": 5136,
    " You": 5137,
    " covetous": 5138,
    "If": 5139,
    " barren": 5140,
    " accusations": 5141,
    " faul": 5142,
    " faults": 5143,
    " surpl": 5144,
    " surplus": 5145,
    " tire": 5146,
    " repetition": 5147,
    " shouts": 5148,
    " these": 5149,
    " side": 5150,
    " city": 5151,
    " ris": 5152,
    " risen": 5153,
    " why": 5154,
    " stay": 5155,
    " prating": 5156,
    " Capit": 5157,
    " Capitol": 5158,
    "Come": 5159,
    " come": 5160,
    " who": 5161,
    " comes": 5162,
    "Worthy": 5163,
    " Menenius": 5164,
    " Agri": 5165,
    " Agripp": 5166,
    " Agrippa": 5167,
    " one": 5168,
    " always": 5169,
    " loved": 5170,
    " enough": 5171,
    "MENEN": 5172,
    "MENENIUS": 5173,
    " countrymen": 5174,
    " bats": 5175,
    " clubs": 5176,
    " matter": 5177,
    "Our": 5178,
    " unknown": 5179,
    " senate": 5180,
    "had": 5181,
    " inkling": 5182,
    " fortnight": 5183,
    " intend": 5184,
    "which": 5185,
    " now": 5186,
    " deeds": 5187,
    " They": 5188,
    "suitors": 5189,
    " breaths": 5190,
    " shall": 5191,
    "have": 5192,
    " arms": 5193,
    "Why": 5194,
    " mine": 5195,
    " neighbours": 5196,
    " undo": 5197,
    " yourselves": 5198,
    " sir": 5199,
    " undone": 5200,
    " already": 5201,
    " tell": 5202,
    " most": 5203,
    " charitable": 5204,
    "Have": 5205,
    " your": 5206,
    " wants": 5207,
    "Your": 5208,
    " suffering": 5209,
    " dearth": 5210,
    "Strike": 5211,
    " staves": 5212,
    " lift": 5213,
    " state": 5214,
    " whose": 5215,
    " course": 5216,
    " takes": 5217,
    " cracking": 5218,
    " thousand": 5219,
    " curbs": 5220,
    "Of": 5221,
    " link": 5222,
    " asunder": 5223,
    "Appear": 5224,
    " imped": 5225,
    " impediment": 5226,
    " make": 5227,
    " knees": 5228,
    " Alack": 5229,
    " transported": 5230,
    " by": 5231,
    " calam": 5232,
    " calamity": 5233,
    "Thither": 5234,
    " attends": 5235,
    " helms": 5236,
    " like": 5237,
    " fathers": 5238,
    " curse": 5239,
    " enem": 5240,
    " enemies": 5241,
    "Care": 5242,
    " True": 5243,
    " indeed": 5244,
    " cared": 5245,
    "yet": 5246,
    " suffer": 5247,
    "houses": 5248,
    "cram": 5249,
    "crammed": 5250,
    " grain": 5251,
    " edicts": 5252,
    " usury": 5253,
    "supp": 5254,
    "support": 5255,
    " usurers": 5256,
    " repeal": 5257,
    " daily": 5258,
    " wholesome": 5259,
    "establ": 5260,
    "established": 5261,
    " provide": 5262,
    "piercing": 5263,
    " statutes": 5264,
    " chain": 5265,
    " restrain": 5266,
    " If": 5267,
    " wars": 5268,
    " love": 5269,
    "Either": 5270,
    "Confess": 5271,
    " wondrous": 5272,
    " accused": 5273,
    " folly": 5274,
    " pretty": 5275,
    " tale": 5276,
    " heard": 5277,
    " since": 5278,
    " serves": 5279,
    " purpose": 5280,
    " venture": 5281,
    "To": 5282,
    " stale": 5283,
    " little": 5284,
    "Well": 5285,
    " yet": 5286,
    "fob": 5287,
    " disgrace": 5288,
    " please": 5289,
    "you": 5290,
    " time": 5291,
    " when": 5292,
    " body": 5293,
    " memb": 5294,
    " members": 5295,
    " belly": 5296,
    " thus": 5297,
    "That": 5298,
    " only": 5299,
    " gulf": 5300,
    " midst": 5301,
    " idle": 5302,
    " unactive": 5303,
    "Still": 5304,
    " cupboard": 5305,
    " cupboarding": 5306,
    " viand": 5307,
    " never": 5308,
    " bearing": 5309,
    "Like": 5310,
    " instruments": 5311,
    "Did": 5312,
    " devise": 5313,
    " walk": 5314,
    " feel": 5315,
    "And": 5316,
    " mutually": 5317,
    " particip": 5318,
    " participate": 5319,
    " minister": 5320,
    "Unto": 5321,
    " appet": 5322,
    " appetite": 5323,
    " affection": 5324,
    " whole": 5325,
    " answer": 5326,
    " made": 5327,
    "Sir": 5328,
    " With": 5329,
    " smile": 5330,
    "Which": 5331,
    " came": 5332,
    " from": 5333,
    " lung": 5334,
    " lungs": 5335,
    " tauntingly": 5336,
    " replied": 5337,
    " discontented": 5338,
    " mutinous": 5339,
    " parts": 5340,
    " envied": 5341,
    " rece": 5342,
    " receipt": 5343,
    " fitly": 5344,
    " senators": 5345,
    "They": 5346,
    " such": 5347,
    " What": 5348,
    " kingly": 5349,
    "crowned": 5350,
    " vigil": 5351,
    " vigilant": 5352,
    " counsellor": 5353,
    " soldier": 5354,
    " steed": 5355,
    " tongue": 5356,
    " trumpeter": 5357,
    " mun": 5358,
    " muniments": 5359,
    " petty": 5360,
    " helps": 5361,
    " fab": 5362,
    " fabric": 5363,
    " then": 5364,
    " speaks": 5365,
    "Should": 5366,
    " corm": 5367,
    " cormorant": 5368,
    "Who": 5369,
    " sink": 5370,
    " agents": 5371,
    " bestow": 5372,
    "Patience": 5373,
    " awhile": 5374,
    " about": 5375,
    "Note": 5376,
    " grave": 5377,
    " deliber": 5378,
    " deliberate": 5379,
    " accusers": 5380,
    "True": 5381,
    " incor": 5382,
    " incorpor": 5383,
    " incorporate": 5384,
    " quoth": 5385,
    " receive": 5386,
    " general": 5387,
    " food": 5388,
    " live": 5389,
    " upon": 5390,
    "Because": 5391,
    " shop": 5392,
    " send": 5393,
    " rivers": 5394,
    "Even": 5395,
    " seat": 5396,
    " brain": 5397,
    " cran": 5398,
    " cranks": 5399,
    " offices": 5400,
    " strongest": 5401,
    " nerves": 5402,
    " inferior": 5403,
    " veins": 5404,
    "From": 5405,
    " natural": 5406,
    " competency": 5407,
    "Whereby": 5408,
    " once": 5409,
    "this": 5410,
    " says": 5411,
    "Ay": 5412,
    "Though": 5413,
    " each": 5414,
    "Yet": 5415,
    " audit": 5416,
    " leave": 5417,
    " apply": 5418,
    " examine": 5419,
    "Their": 5420,
    " counsels": 5421,
    " cares": 5422,
    " digest": 5423,
    " things": 5424,
    " rightly": 5425,
    "Touching": 5426,
    " weal": 5427,
    " benefit": 5428,
    " proceeds": 5429,
    " toe": 5430,
    " assembly": 5431,
    " lowest": 5432,
    " basest": 5433,
    " poorest": 5434,
    " wise": 5435,
    " rebellion": 5436,
    " thou": 5437,
    " foremost": 5438,
    "Thou": 5439,
    " rascal": 5440,
    " worst": 5441,
    "Lead": 5442,
    " win": 5443,
    " vantage": 5444,
    " ready": 5445,
    " stiff": 5446,
    " rats": 5447,
    " point": 5448,
    "Hail": 5449,
    "MARCIUS": 5450,
    "Thanks": 5451,
    " dissentious": 5452,
    " rogues": 5453,
    " rubbing": 5454,
    " itch": 5455,
    " opinion": 5456,
    "Make": 5457,
    " scab": 5458,
    " scabs": 5459,
    " words": 5460,
    " thee": 5461,
    "Beneath": 5462,
    " abhorring": 5463,
    " affrights": 5464,
    " makes": 5465,
    " trusts": 5466,
    " lions": 5467,
    " finds": 5468,
    " hares": 5469,
    " foxes": 5470,
    " ge": 5471,
    " geese": 5472,
    " surer": 5473,
    "Than": 5474,
    " coal": 5475,
    " fire": 5476,
    " ice": 5477,
    " hailstone": 5478,
    " Your": 5479,
    " worthy": 5480,
    " subdues": 5481,
    " justice": 5482,
    " deserves": 5483,
    " greatness": 5484,
    "Deserves": 5485,
    " affections": 5486,
    " desires": 5487,
    " incre": 5488,
    " increase": 5489,
    " evil": 5490,
    " depends": 5491,
    " favours": 5492,
    " swims": 5493,
    " fins": 5494,
    " hews": 5495,
    " oaks": 5496,
    " rushes": 5497,
    " Hang": 5498,
    " Trust": 5499,
    " Ye": 5500,
    " every": 5501,
    " minute": 5502,
    " change": 5503,
    "Him": 5504,
    " garland": 5505,
    " several": 5506,
    " places": 5507,
    "Under": 5508,
    " awe": 5509,
    " else": 5510,
    " another": 5511,
    " seeking": 5512,
    " rates": 5513,
    " whereof": 5514,
    " stored": 5515,
    "Hang": 5516,
    " sit": 5517,
    " presume": 5518,
    " i": 5519,
    " rise": 5520,
    " thrives": 5521,
    " declines": 5522,
    " factions": 5523,
    "Conject": 5524,
    "Conjectural": 5525,
    " marriages": 5526,
    " making": 5527,
    " parties": 5528,
    " feebling": 5529,
    " liking": 5530,
    "Below": 5531,
    " cobb": 5532,
    " cobbled": 5533,
    " shoes": 5534,
    "grain": 5535,
    " nobility": 5536,
    " lay": 5537,
    " aside": 5538,
    " use": 5539,
    " sword": 5540,
    " quarry": 5541,
    " thousands": 5542,
    " quarter": 5543,
    " slaves": 5544,
    " almost": 5545,
    " thoroughly": 5546,
    " persuaded": 5547,
    " abundantly": 5548,
    " discret": 5549,
    " discretion": 5550,
    " passing": 5551,
    " cowardly": 5552,
    " But": 5553,
    " beseech": 5554,
    " troop": 5555,
    " dissolved": 5556,
    " said": 5557,
    "hung": 5558,
    "hungry": 5559,
    " proverbs": 5560,
    " broke": 5561,
    " stone": 5562,
    " walls": 5563,
    " dogs": 5564,
    " mouths": 5565,
    "Corn": 5566,
    " shred": 5567,
    " shreds": 5568,
    " vented": 5569,
    " complainings": 5570,
    " granted": 5571,
    " strange": 5572,
    " generos": 5573,
    " generosity": 5574,
    " pale": 5575,
    "they": 5576,
    " threw": 5577,
    " caps": 5578,
    " horns": 5579,
    "Shouting": 5580,
    " emul": 5581,
    " emulation": 5582,
    "Five": 5583,
    " tribunes": 5584,
    " defend": 5585,
    " wisdoms": 5586,
    " choice": 5587,
    " Junius": 5588,
    " Brutus": 5589,
    "Sicinius": 5590,
    " Vel": 5591,
    " Velutus": 5592,
    "Sdeath": 5593,
    " rab": 5594,
    " rabble": 5595,
    " unroof": 5596,
    "Ere": 5597,
    "Win": 5598,
    " greater": 5599,
    " themes": 5600,
    " insurrection": 5601,
    " argu": 5602,
    " arguing": 5603,
    "This": 5604,
    " get": 5605,
    " home": 5606,
    " frag": 5607,
    " fragments": 5608,
    "Messenger": 5609,
    " news": 5610,
    " Volsces": 5611,
    " glad": 5612,
    " means": 5613,
    " musty": 5614,
    " See": 5615,
    " elders": 5616,
    " Sen": 5617,
    " Senator": 5618,
    "Marcius": 5619,
    "tis": 5620,
    " lately": 5621,
    " told": 5622,
    " leader": 5623,
    "Tullus": 5624,
    " envying": 5625,
    " thing": 5626,
    "COM": 5627,
    "COMINIUS": 5628,
    " fought": 5629,
    " together": 5630,
    "Were": 5631,
    " half": 5632,
    " ears": 5633,
    " party": 5634,
    " revolt": 5635,
    "Only": 5636,
    " lion": 5637,
    " hunt": 5638,
    "Then": 5639,
    "Attend": 5640,
    " Comin": 5641,
    " Cominius": 5642,
    " promise": 5643,
    " Titus": 5644,
    " Lart": 5645,
    " Lartius": 5646,
    "Shalt": 5647,
    " strike": 5648,
    " Tullus": 5649,
    " face": 5650,
    "TIT": 5651,
    "TITUS": 5652,
    " crutch": 5653,
    " behind": 5654,
    "bred": 5655,
    " company": 5656,
    " greatest": 5657,
    " much": 5658,
    " take": 5659,
    " thither": 5660,
    " gnaw": 5661,
    " garn": 5662,
    " garners": 5663,
    " Worship": 5664,
    " Worshipful": 5665,
    " mutiners": 5666,
    " valour": 5667,
    " puts": 5668,
    "SIC": 5669,
    "SICINIUS": 5670,
    "Was": 5671,
    "BRUT": 5672,
    "BRUTUS": 5673,
    " equal": 5674,
    " chosen": 5675,
    "Mark": 5676,
    " lip": 5677,
    " taunts": 5678,
    "Being": 5679,
    " moved": 5680,
    " spare": 5681,
    " gird": 5682,
    " devour": 5683,
    " grown": 5684,
    "Too": 5685,
    "Such": 5686,
    "Tickled": 5687,
    " disdains": 5688,
    " shadow": 5689,
    " treads": 5690,
    " noon": 5691,
    "His": 5692,
    " insolence": 5693,
    " brook": 5694,
    " commanded": 5695,
    "Fame": 5696,
    " aims": 5697,
    " whom": 5698,
    " graced": 5699,
    " below": 5700,
    " miscarries": 5701,
    "Shall": 5702,
    " perform": 5703,
    " utmost": 5704,
    " gid": 5705,
    " giddy": 5706,
    " censure": 5707,
    "Had": 5708,
    " borne": 5709,
    "Besides": 5710,
    "Opinion": 5711,
    " sticks": 5712,
    " demer": 5713,
    " demerits": 5714,
    "Half": 5715,
    " honours": 5716,
    " earned": 5717,
    " aught": 5718,
    " merit": 5719,
    " hence": 5720,
    " dispatch": 5721,
    " fashion": 5722,
    " singularity": 5723,
    " goes": 5724,
    " action": 5725,
    "Lets": 5726,
    " along": 5727,
    " entered": 5728,
    "AUF": 5729,
    "AUFID": 5730,
    "AUFIDIUS": 5731,
    " been": 5732,
    " thought": 5733,
    " brought": 5734,
    " bodily": 5735,
    " circumvention": 5736,
    "Tis": 5737,
    " four": 5738,
    " days": 5739,
    " gone": 5740,
    "Since": 5741,
    " thence": 5742,
    " letter": 5743,
    " yes": 5744,
    " known": 5745,
    "Whether": 5746,
    "Cominius": 5747,
    " worse": 5748,
    " hated": 5749,
    "These": 5750,
    " three": 5751,
    " preparation": 5752,
    "Whither": 5753,
    " bent": 5754,
    " likely": 5755,
    " army": 5756,
    " pretences": 5757,
    " veil": 5758,
    " needs": 5759,
    " themselves": 5760,
    " hatching": 5761,
    " By": 5762,
    " discovery": 5763,
    " shorten": 5764,
    " aim": 5765,
    " many": 5766,
    " towns": 5767,
    " afoot": 5768,
    "Take": 5769,
    " commission": 5770,
    " hie": 5771,
    " bands": 5772,
    " alone": 5773,
    " Corioli": 5774,
    " set": 5775,
    " before": 5776,
    " remove": 5777,
    "Bring": 5778,
    " prepared": 5779,
    " certainties": 5780,
    " Nay": 5781,
    "Some": 5782,
    " parcels": 5783,
    " hitherward": 5784,
    " chance": 5785,
    " sworn": 5786,
    " between": 5787,
    "Till": 5788,
    "Farewell": 5789,
    "VOLUM": 5790,
    "VOLUMN": 5791,
    "VOLUMNIA": 5792,
    " daughter": 5793,
    " yourself": 5794,
    " comfortable": 5795,
    " sort": 5796,
    " son": 5797,
    "should": 5798,
    " freel": 5799,
    " freelier": 5800,
    " rejoice": 5801,
    " abs": 5802,
    " absence": 5803,
    " wherein": 5804,
    "won": 5805,
    " embracements": 5806,
    " When": 5807,
    "tender": 5808,
    "bodied": 5809,
    " womb": 5810,
    "youth": 5811,
    " comel": 5812,
    " comeliness": 5813,
    " plucked": 5814,
    " gaze": 5815,
    " kings": 5816,
    " entreaties": 5817,
    " beholding": 5818,
    " consid": 5819,
    " considering": 5820,
    "how": 5821,
    " better": 5822,
    " picture": 5823,
    " wall": 5824,
    "renown": 5825,
    " pleased": 5826,
    " seek": 5827,
    "danger": 5828,
    " fame": 5829,
    " To": 5830,
    " whence": 5831,
    " returned": 5832,
    "bound": 5833,
    " oak": 5834,
    " sprang": 5835,
    " hearing": 5836,
    "than": 5837,
    " seeing": 5838,
    " had": 5839,
    " proved": 5840,
    "VI": 5841,
    "VIR": 5842,
    "VIRG": 5843,
    "VIRGILIA": 5844,
    " died": 5845,
    " madam": 5846,
    "therein": 5847,
    " issue": 5848,
    "sinc": 5849,
    "sincer": 5850,
    "sincerely": 5851,
    " dozen": 5852,
    " sons": 5853,
    "alike": 5854,
    " none": 5855,
    " thine": 5856,
    " eleven": 5857,
    " nobly": 5858,
    "count": 5859,
    "country": 5860,
    " volupt": 5861,
    " voluptu": 5862,
    " voluptuously": 5863,
    " surfeit": 5864,
    "Gentlewoman": 5865,
    "Madam": 5866,
    " Lady": 5867,
    " Valer": 5868,
    " Valeria": 5869,
    " visit": 5870,
    " myself": 5871,
    "Indeed": 5872,
    "Methinks": 5873,
    " children": 5874,
    " shunning": 5875,
    " stamp": 5876,
    " cowards": 5877,
    " got": 5878,
    " bloody": 5879,
    " brow": 5880,
    " mail": 5881,
    " wiping": 5882,
    " harvest": 5883,
    " task": 5884,
    " mow": 5885,
    " lose": 5886,
    " hire": 5887,
    " Jup": 5888,
    " Jupiter": 5889,
    "Away": 5890,
    " becomes": 5891,
    " gilt": 5892,
    " troph": 5893,
    " trophy": 5894,
    " breasts": 5895,
    " Hec": 5896,
    " Hecub": 5897,
    " Hecuba": 5898,
    " suckle": 5899,
    " Hect": 5900,
    " Hector": 5901,
    " lovel": 5902,
    " lovelier": 5903,
    " forehead": 5904,
    " spit": 5905,
    "At": 5906,
    " Gre": 5907,
    " Grecian": 5908,
    " contemning": 5909,
    " Tell": 5910,
    " welcome": 5911,
    "Heavens": 5912,
    " knee": 5913,
    "VAL": 5914,
    "VALER": 5915,
    "VALERIA": 5916,
    "My": 5917,
    " ladies": 5918,
    " both": 5919,
    " ladyship": 5920,
    " manifest": 5921,
    "keepers": 5922,
    " sewing": 5923,
    " fine": 5924,
    "faith": 5925,
    " How": 5926,
    " does": 5927,
    " swords": 5928,
    " swear": 5929,
    " boy": 5930,
    " troth": 5931,
    " looked": 5932,
    "Wednesday": 5933,
    "conf": 5934,
    "confir": 5935,
    "confirmed": 5936,
    " countenance": 5937,
    " gilded": 5938,
    "butter": 5939,
    "butterfly": 5940,
    " caught": 5941,
    "again": 5942,
    " again": 5943,
    "comes": 5944,
    " catched": 5945,
    " whether": 5946,
    " enra": 5947,
    " enraged": 5948,
    "twas": 5949,
    "teeth": 5950,
    " warrant": 5951,
    " mammock": 5952,
    " mammocked": 5953,
    " moods": 5954,
    " crack": 5955,
    " stitch": 5956,
    " stitchery": 5957,
    " husewife": 5958,
    " afternoon": 5959,
    " doors": 5960,
    "She": 5961,
    " patience": 5962,
    "threshold": 5963,
    "Fie": 5964,
    " confine": 5965,
    " unreason": 5966,
    " unreasonably": 5967,
    " lies": 5968,
    " speedy": 5969,
    " prayers": 5970,
    " save": 5971,
    " Penel": 5972,
    " Penelope": 5973,
    " yarn": 5974,
    " spun": 5975,
    " U": 5976,
    " Uly": 5977,
    " Ulyss": 5978,
    " Ulysses": 5979,
    " fill": 5980,
    "Ith": 5981,
    "Ithaca": 5982,
    " full": 5983,
    " moths": 5984,
    " Come": 5985,
    "were": 5986,
    " sensible": 5987,
    " finger": 5988,
    "pri": 5989,
    "pricking": 5990,
    " truth": 5991,
    "exc": 5992,
    "excellent": 5993,
    "Verily": 5994,
    " jest": 5995,
    "him": 5996,
    " senator": 5997,
    "Thus": 5998,
    "whom": 5999,
    " nothing": 6000,
    "pre": 6001,
    "prevail": 6002,
    "prevailing": 6003,
    "Give": 6004,
    " excuse": 6005,
    " obey": 6006,
    " hereafter": 6007,
    "dise": 6008,
    "disease": 6009,
    " Fare": 6010,
    " Prithee": 6011,
    " Virg": 6012,
    " Virgilia": 6013,
    " thy": 6014,
    "solem": 6015,
    "solemness": 6016,
    " door": 6017,
    " farewell": 6018,
    "Yonder": 6019,
    " wager": 6020,
    "LART": 6021,
    "LARTIUS": 6022,
    " horse": 6023,
    "Agreed": 6024,
    "Say": 6025,
    " spoke": 6026,
    " sell": 6027,
    " hundred": 6028,
    " years": 6029,
    " Summon": 6030,
    " armies": 6031,
    "Within": 6032,
    " mile": 6033,
    "larum": 6034,
    "Now": 6035,
    " Mars": 6036,
    " prithee": 6037,
    " smoking": 6038,
    " fielded": 6039,
    " blast": 6040,
    "Tutus": 6041,
    " within": 6042,
    " fears": 6043,
    " lesser": 6044,
    "Hark": 6045,
    " drums": 6046,
    "Are": 6047,
    " bringing": 6048,
    " We": 6049,
    "Rather": 6050,
    " pound": 6051,
    " gates": 6052,
    " shut": 6053,
    " pinn": 6054,
    "Amongst": 6055,
    " cloven": 6056,
    " noise": 6057,
    " instruction": 6058,
    " Ladders": 6059,
    " shields": 6060,
    " Advance": 6061,
    "brave": 6062,
    " disdain": 6063,
    " bey": 6064,
    " beyond": 6065,
    " thoughts": 6066,
    " fellows": 6067,
    " retires": 6068,
    " Volsce": 6069,
    " edge": 6070,
    " contag": 6071,
    " contagion": 6072,
    " shames": 6073,
    " herd": 6074,
    "Boils": 6075,
    " plagues": 6076,
    "Plaster": 6077,
    " abhorr": 6078,
    "Further": 6079,
    " seen": 6080,
    " souls": 6081,
    " shapes": 6082,
    " apes": 6083,
    " Pluto": 6084,
    " hurt": 6085,
    " backs": 6086,
    " faces": 6087,
    " flight": 6088,
    " agued": 6089,
    " Mend": 6090,
    " charge": 6091,
    " fires": 6092,
    " foe": 6093,
    " wives": 6094,
    " trenches": 6095,
    " followed": 6096,
    " ope": 6097,
    " prove": 6098,
    " seconds": 6099,
    " followers": 6100,
    " fortune": 6101,
    " widens": 6102,
    " fliers": 6103,
    " Soldier": 6104,
    "Fool": 6105,
    "hardiness": 6106,
    "Slain": 6107,
    " doubtless": 6108,
    "Following": 6109,
    " heels": 6110,
    " enters": 6111,
    "Cla": 6112,
    "Clapp": 6113,
    " sensib": 6114,
    " sensibly": 6115,
    " outdares": 6116,
    " senseless": 6117,
    " bows": 6118,
    " stands": 6119,
    " Thou": 6120,
    " left": 6121,
    " carb": 6122,
    " carbuncle": 6123,
    " entire": 6124,
    " jewel": 6125,
    " wast": 6126,
    " Cato": 6127,
    " fierce": 6128,
    " terrible": 6129,
    " stro": 6130,
    " strokes": 6131,
    " looks": 6132,
    " percus": 6133,
    " percussion": 6134,
    " sounds": 6135,
    " madst": 6136,
    " shake": 6137,
    " feverous": 6138,
    " tremble": 6139,
    "Look": 6140,
    " fetch": 6141,
    " alike": 6142,
    " carry": 6143,
    "Third": 6144,
    " murrain": 6145,
    " took": 6146,
    " silver": 6147,
    " movers": 6148,
    " prize": 6149,
    " hours": 6150,
    " drach": 6151,
    " drachm": 6152,
    " Cushions": 6153,
    " leaden": 6154,
    " spoons": 6155,
    "Irons": 6156,
    " doit": 6157,
    " doublets": 6158,
    " hangmen": 6159,
    "Bury": 6160,
    " those": 6161,
    " wore": 6162,
    " base": 6163,
    " hark": 6164,
    "Piercing": 6165,
    " Rom": 6166,
    " Romans": 6167,
    "Convenient": 6168,
    " numbers": 6169,
    "Whilst": 6170,
    " haste": 6171,
    " bleed": 6172,
    "Thy": 6173,
    " exerc": 6174,
    " exercise": 6175,
    " praise": 6176,
    " fare": 6177,
    " drop": 6178,
    " phys": 6179,
    " physical": 6180,
    " dangerous": 6181,
    " Fortune": 6182,
    "Fall": 6183,
    " charms": 6184,
    "Misgu": 6185,
    "Misguide": 6186,
    " opposers": 6187,
    " Bold": 6188,
    "Prosperity": 6189,
    " placeth": 6190,
    " highest": 6191,
    " So": 6192,
    " worthiest": 6193,
    " trumpet": 6194,
    "Call": 6195,
    " officers": 6196,
    "Breathe": 6197,
    " neither": 6198,
    " believe": 6199,
    " sirs": 6200,
    " charged": 6201,
    " Whiles": 6202,
    "By": 6203,
    " interims": 6204,
    " conve": 6205,
    " conveying": 6206,
    " gusts": 6207,
    " charges": 6208,
    " successes": 6209,
    " powers": 6210,
    " smiling": 6211,
    "fron": 6212,
    "fronts": 6213,
    " encountering": 6214,
    " thankful": 6215,
    " sacrifice": 6216,
    " issued": 6217,
    " given": 6218,
    " driven": 6219,
    "Above": 6220,
    " briefly": 6221,
    " couldst": 6222,
    " confound": 6223,
    " bring": 6224,
    " late": 6225,
    "Spies": 6226,
    "Held": 6227,
    " chase": 6228,
    " forced": 6229,
    " wheel": 6230,
    "Three": 6231,
    " miles": 6232,
    " yonder": 6233,
    " flay": 6234,
    "time": 6235,
    " shepherd": 6236,
    " knows": 6237,
    " tabour": 6238,
    " meaner": 6239,
    " others": 6240,
    " mantled": 6241,
    " clip": 6242,
    " merry": 6243,
    " nuptial": 6244,
    " tapers": 6245,
    " bedward": 6246,
    "Flower": 6247,
    " warriors": 6248,
    " busied": 6249,
    " decrees": 6250,
    "Condemning": 6251,
    " exile": 6252,
    "Ransom": 6253,
    "Ransoming": 6254,
    " pitying": 6255,
    " threatening": 6256,
    "Holding": 6257,
    " name": 6258,
    " fawning": 6259,
    " greyhound": 6260,
    " leash": 6261,
    " slip": 6262,
    " slave": 6263,
    " gentlemen": 6264,
    " file": 6265,
    " plague": 6266,
    " mouse": 6267,
    " shunn": 6268,
    " budge": 6269,
    " rasc": 6270,
    " rascals": 6271,
    " serve": 6272,
    " cease": 6273,
    " disadv": 6274,
    " disadvantage": 6275,
    "Retire": 6276,
    " placed": 6277,
    " vaw": 6278,
    " vaward": 6279,
    " Antiates": 6280,
    " battles": 6281,
    " vows": 6282,
    " endure": 6283,
    " directly": 6284,
    "Set": 6285,
    " delay": 6286,
    "Filling": 6287,
    " air": 6288,
    " advanced": 6289,
    " darts": 6290,
    " conducted": 6291,
    " balms": 6292,
    " applied": 6293,
    " dare": 6294,
    "Deny": 6295,
    " asking": 6296,
    "Those": 6297,
    "that": 6298,
    " painting": 6299,
    "Wherein": 6300,
    " smear": 6301,
    "Lesser": 6302,
    " ill": 6303,
    " brave": 6304,
    " outweigh": 6305,
    " outweighs": 6306,
    " life": 6307,
    " dearer": 6308,
    " minded": 6309,
    "Wave": 6310,
    " disposition": 6311,
    " shows": 6312,
    "Able": 6313,
    " shield": 6314,
    " select": 6315,
    "fro": 6316,
    "from": 6317,
    " cause": 6318,
    " Please": 6319,
    " quickly": 6320,
    " inclined": 6321,
    "March": 6322,
    " ostent": 6323,
    " ostentation": 6324,
    "Divide": 6325,
    " ports": 6326,
    " guarded": 6327,
    " dut": 6328,
    " duties": 6329,
    " centuries": 6330,
    " holding": 6331,
    "Lieutenant": 6332,
    "Fear": 6333,
    "Hence": 6334,
    " guider": 6335,
    " camp": 6336,
    "Worse": 6337,
    "breaker": 6338,
    " Af": 6339,
    " Afric": 6340,
    " owns": 6341,
    " serpent": 6342,
    " envy": 6343,
    " Fix": 6344,
    " budger": 6345,
    " doom": 6346,
    " fly": 6347,
    "Hollo": 6348,
    "Holloa": 6349,
    " hare": 6350,
    "Alone": 6351,
    " seest": 6352,
    " mask": 6353,
    "Wrench": 6354,
    "Wert": 6355,
    " whip": 6356,
    " progen": 6357,
    " progeny": 6358,
    " shouldst": 6359,
    " scape": 6360,
    "Officious": 6361,
    " shamed": 6362,
    " condemned": 6363,
    "ldst": 6364,
    " mingle": 6365,
    " tears": 6366,
    " smiles": 6367,
    " shrug": 6368,
    " admire": 6369,
    " frighted": 6370,
    " gladly": 6371,
    " quaked": 6372,
    "dull": 6373,
    " fusty": 6374,
    " plebeians": 6375,
    " camest": 6376,
    " mors": 6377,
    " morsel": 6378,
    " feast": 6379,
    "Having": 6380,
    " fully": 6381,
    " dined": 6382,
    " capar": 6383,
    " caparison": 6384,
    "Hadst": 6385,
    " beheld": 6386,
    "Pray": 6387,
    " charter": 6388,
    " extol": 6389,
    " grieves": 6390,
    " induced": 6391,
    " effected": 6392,
    "Hath": 6393,
    " overta": 6394,
    " deserving": 6395,
    " value": 6396,
    "twere": 6397,
    " concealment": 6398,
    " theft": 6399,
    " traducement": 6400,
    " doings": 6401,
    " silence": 6402,
    " spire": 6403,
    " praises": 6404,
    " therefore": 6405,
    "before": 6406,
    " wounds": 6407,
    " smart": 6408,
    " fester": 6409,
    "gainst": 6410,
    " ingr": 6411,
    " ingratitude": 6412,
    " Of": 6413,
    " horses": 6414,
    "Whereof": 6415,
    " treasure": 6416,
    " achieved": 6417,
    " render": 6418,
    " tenth": 6419,
    " distribution": 6420,
    " consent": 6421,
    " bribe": 6422,
    " refuse": 6423,
    " doing": 6424,
    " same": 6425,
    " profane": 6426,
    "Never": 6427,
    " trumpets": 6428,
    " flatterers": 6429,
    " cities": 6430,
    "Made": 6431,
    "faced": 6432,
    " soothing": 6433,
    " grows": 6434,
    " paras": 6435,
    " parasite": 6436,
    " silk": 6437,
    " coverture": 6438,
    " nose": 6439,
    " bled": 6440,
    " foil": 6441,
    " debile": 6442,
    " wretch": 6443,
    " without": 6444,
    " note": 6445,
    " shout": 6446,
    " accl": 6447,
    " acclam": 6448,
    " acclamations": 6449,
    " hyper": 6450,
    " hyperb": 6451,
    " hyperbol": 6452,
    " hyperbolical": 6453,
    " dieted": 6454,
    " sauced": 6455,
    " grate": 6456,
    " grateful": 6457,
    " truly": 6458,
    " incensed": 6459,
    " manacles": 6460,
    " safely": 6461,
    " Therefore": 6462,
    "Wears": 6463,
    " token": 6464,
    " belonging": 6465,
    " appla": 6466,
    " applause": 6467,
    " clamour": 6468,
    "CAIUS": 6469,
    " MARCIUS": 6470,
    " CORIOLANUS": 6471,
    " Bear": 6472,
    " addition": 6473,
    "Caius": 6474,
    " Coriolanus": 6475,
    "CORIOLANUS": 6476,
    " perceive": 6477,
    " howbeit": 6478,
    " stride": 6479,
    " times": 6480,
    " underc": 6481,
    " undercrest": 6482,
    " fairness": 6483,
    " repose": 6484,
    " write": 6485,
    " articulate": 6486,
    " begin": 6487,
    "Refused": 6488,
    " princely": 6489,
    " gifts": 6490,
    " sometime": 6491,
    " used": 6492,
    " kindly": 6493,
    " cried": 6494,
    " prisoner": 6495,
    "erwhelm": 6496,
    " request": 6497,
    " freedom": 6498,
    " Deliver": 6499,
    " forgot": 6500,
    " weary": 6501,
    " yea": 6502,
    " mem": 6503,
    " memory": 6504,
    " tired": 6505,
    " wine": 6506,
    " visage": 6507,
    " dries": 6508,
    "Twill": 6509,
    " condition": 6510,
    " Cond": 6511,
    " Condition": 6512,
    " treaty": 6513,
    " mercy": 6514,
    " Five": 6515,
    " often": 6516,
    " wouldst": 6517,
    " elements": 6518,
    " beard": 6519,
    " potch": 6520,
    "Bolder": 6521,
    " subtle": 6522,
    " My": 6523,
    " itself": 6524,
    " sanctuary": 6525,
    " naked": 6526,
    " fane": 6527,
    " priests": 6528,
    "Emb": 6529,
    "Embarqu": 6530,
    "Embarquements": 6531,
    " fury": 6532,
    " rott": 6533,
    " rotten": 6534,
    " privilege": 6535,
    " hosp": 6536,
    " hospitable": 6537,
    " canon": 6538,
    "Wash": 6539,
    " Go": 6540,
    "Learn": 6541,
    " hostages": 6542,
    " attended": 6543,
    " cy": 6544,
    " cypress": 6545,
    " grove": 6546,
    " mills": 6547,
    " pace": 6548,
    " augurer": 6549,
    " tells": 6550,
    "Good": 6551,
    " according": 6552,
    " prayer": 6553,
    "love": 6554,
    "Nature": 6555,
    " teaches": 6556,
    " beasts": 6557,
    " wolf": 6558,
    " lamb": 6559,
    " hungry": 6560,
    " baes": 6561,
    " lives": 6562,
    " two": 6563,
    " ask": 6564,
    "Both": 6565,
    " enor": 6566,
    " enormity": 6567,
    "Esp": 6568,
    "Especially": 6569,
    " pride": 6570,
    " topping": 6571,
    " boasting": 6572,
    "cens": 6573,
    "censured": 6574,
    " censured": 6575,
    "will": 6576,
    " angry": 6577,
    " thief": 6578,
    "occasion": 6579,
    " dispos": 6580,
    " dispositions": 6581,
    " reins": 6582,
    "your": 6583,
    " pleasures": 6584,
    " least": 6585,
    "being": 6586,
    " actions": 6587,
    "single": 6588,
    " abilities": 6589,
    " infant": 6590,
    "doing": 6591,
    "could": 6592,
    " toward": 6593,
    " napes": 6594,
    " necks": 6595,
    " interior": 6596,
    " survey": 6597,
    " selves": 6598,
    " unmer": 6599,
    " unmeriting": 6600,
    " testy": 6601,
    " magistrates": 6602,
    " alias": 6603,
    " fools": 6604,
    "Menenius": 6605,
    " humorous": 6606,
    " patrician": 6607,
    " allaying": 6608,
    "Tiber": 6609,
    " something": 6610,
    " imperfect": 6611,
    "favouring": 6612,
    " complaint": 6613,
    " hasty": 6614,
    " tinder": 6615,
    " triv": 6616,
    " trivial": 6617,
    " motion": 6618,
    " converses": 6619,
    " buttock": 6620,
    " morning": 6621,
    " spend": 6622,
    "malice": 6623,
    " Meeting": 6624,
    " weals": 6625,
    " wealsmen": 6626,
    " Lyc": 6627,
    " Lycurg": 6628,
    " Lycurguses": 6629,
    " drink": 6630,
    " palate": 6631,
    " adversely": 6632,
    "cro": 6633,
    "crooked": 6634,
    " worships": 6635,
    "delivered": 6636,
    "compound": 6637,
    " major": 6638,
    " syllables": 6639,
    " reverend": 6640,
    " deadly": 6641,
    "tell": 6642,
    " map": 6643,
    " mic": 6644,
    " micro": 6645,
    " microc": 6646,
    " microcos": 6647,
    " microcosm": 6648,
    " follows": 6649,
    " barm": 6650,
    " biss": 6651,
    " bisson": 6652,
    "conspect": 6653,
    "conspectuities": 6654,
    " glean": 6655,
    " character": 6656,
    " ambit": 6657,
    " ambitious": 6658,
    " knaves": 6659,
    " legs": 6660,
    " forenoon": 6661,
    " orange": 6662,
    " wife": 6663,
    " foss": 6664,
    " fosset": 6665,
    "seller": 6666,
    " rejourn": 6667,
    " controversy": 6668,
    " pence": 6669,
    "second": 6670,
    " audience": 6671,
    "matter": 6672,
    "pin": 6673,
    "pinched": 6674,
    " colic": 6675,
    "mumm": 6676,
    "mummers": 6677,
    " flag": 6678,
    "patience": 6679,
    " roaring": 6680,
    "pot": 6681,
    "dismiss": 6682,
    " bleeding": 6683,
    " entangled": 6684,
    " calling": 6685,
    " pair": 6686,
    " ones": 6687,
    " understood": 6688,
    "perfect": 6689,
    "perfecter": 6690,
    " giber": 6691,
    " table": 6692,
    " necessary": 6693,
    "bencher": 6694,
    " mockers": 6695,
    "encounter": 6696,
    " ridic": 6697,
    " ridiculous": 6698,
    " subjects": 6699,
    "wagging": 6700,
    " beards": 6701,
    " deserve": 6702,
    " honourable": 6703,
    " stuff": 6704,
    " bot": 6705,
    " botch": 6706,
    " botcher": 6707,
    "cushion": 6708,
    " entom": 6709,
    " entombed": 6710,
    "saddle": 6711,
    " Yet": 6712,
    " saying": 6713,
    "who": 6714,
    " estimation": 6715,
    " predecess": 6716,
    " predecessors": 6717,
    "since": 6718,
    " Deuc": 6719,
    " Deucalion": 6720,
    " peradventure": 6721,
    " hered": 6722,
    " hereditary": 6723,
    " God": 6724,
    " conversation": 6725,
    "infect": 6726,
    " herdsmen": 6727,
    " beastly": 6728,
    "plebe": 6729,
    "plebeians": 6730,
    " earthly": 6731,
    " nobler": 6732,
    "whither": 6733,
    "Honourable": 6734,
    " approaches": 6735,
    " Juno": 6736,
    "Ha": 6737,
    " coming": 6738,
    " prosperous": 6739,
    "appro": 6740,
    "approbation": 6741,
    " Hoo": 6742,
    "another": 6743,
    " reel": 6744,
    " ton": 6745,
    " tonight": 6746,
    "Yes": 6747,
    " gives": 6748,
    " estate": 6749,
    " seven": 6750,
    "years": 6751,
    " physician": 6752,
    " prescription": 6753,
    "Gal": 6754,
    "Galen": 6755,
    " empi": 6756,
    " empiric": 6757,
    " empiricut": 6758,
    " empiricutic": 6759,
    " preserv": 6760,
    " preservative": 6761,
    "drench": 6762,
    " wounded": 6763,
    " wont": 6764,
    " brings": 6765,
    "victory": 6766,
    " pock": 6767,
    " pocket": 6768,
    " third": 6769,
    " oaken": 6770,
    "Has": 6771,
    " disciplined": 6772,
    " soundly": 6773,
    "Titus": 6774,
    " writes": 6775,
    "Aufidius": 6776,
    " stayed": 6777,
    "fidiused": 6778,
    " chests": 6779,
    " possessed": 6780,
    " Yes": 6781,
    "has": 6782,
    " lett": 6783,
    " letters": 6784,
    "son": 6785,
    " outdone": 6786,
    " doubly": 6787,
    "Wond": 6788,
    "Wondrous": 6789,
    "true": 6790,
    " purchasing": 6791,
    " grant": 6792,
    " wow": 6793,
    "God": 6794,
    "home": 6795,
    " Where": 6796,
    " shoulder": 6797,
    "large": 6798,
    " cic": 6799,
    " cicatri": 6800,
    " cicatrices": 6801,
    " received": 6802,
    " repulse": 6803,
    "Tarquin": 6804,
    " hurts": 6805,
    " thigh": 6806,
    "nine": 6807,
    " expedition": 6808,
    " twenty": 6809,
    "five": 6810,
    "wounds": 6811,
    "seven": 6812,
    " gash": 6813,
    " ush": 6814,
    " ushers": 6815,
    "carries": 6816,
    " leaves": 6817,
    "Death": 6818,
    " nerv": 6819,
    " nervy": 6820,
    " doth": 6821,
    "Herald": 6822,
    "Wel": 6823,
    "Welcome": 6824,
    " renowned": 6825,
    " offend": 6826,
    " prosperity": 6827,
    " deed": 6828,
    "achieving": 6829,
    " newly": 6830,
    " named": 6831,
    "Coriolanus": 6832,
    "Wouldst": 6833,
    " coffin": 6834,
    " Ay": 6835,
    " widows": 6836,
    " mothers": 6837,
    " welcomes": 6838,
    " heavy": 6839,
    " Welcome": 6840,
    " dote": 6841,
    " crab": 6842,
    "trees": 6843,
    " graf": 6844,
    " grafted": 6845,
    " relish": 6846,
    " nettle": 6847,
    " lived": 6848,
    " inherited": 6849,
    " wishes": 6850,
    " buildings": 6851,
    " fancy": 6852,
    " wanting": 6853,
    " servant": 6854,
    " sway": 6855,
    " theirs": 6856,
    " tongues": 6857,
    " bleared": 6858,
    " sights": 6859,
    " spectac": 6860,
    " spectacled": 6861,
    " prattling": 6862,
    " nurse": 6863,
    "Into": 6864,
    " rapture": 6865,
    " lets": 6866,
    " baby": 6867,
    "While": 6868,
    " chats": 6869,
    " kitchen": 6870,
    " malk": 6871,
    " malkin": 6872,
    " pins": 6873,
    " richest": 6874,
    " lockram": 6875,
    "bout": 6876,
    " reech": 6877,
    " reechy": 6878,
    "Clamber": 6879,
    "Clambering": 6880,
    " stalls": 6881,
    " bulks": 6882,
    " windows": 6883,
    " leads": 6884,
    " ridges": 6885,
    " horsed": 6886,
    " vari": 6887,
    " variable": 6888,
    " complexions": 6889,
    " agreeing": 6890,
    " earnestness": 6891,
    "shown": 6892,
    " flam": 6893,
    " flamens": 6894,
    " popular": 6895,
    " throngs": 6896,
    " station": 6897,
    " dames": 6898,
    "Commit": 6899,
    " white": 6900,
    " damask": 6901,
    " nicely": 6902,
    "gaw": 6903,
    "gawded": 6904,
    " cheeks": 6905,
    " wanton": 6906,
    " spoil": 6907,
    " Phoe": 6908,
    " Phoebus": 6909,
    " burning": 6910,
    " kisses": 6911,
    " pother": 6912,
    " whatsoever": 6913,
    " slily": 6914,
    " crept": 6915,
    " into": 6916,
    " gave": 6917,
    " graceful": 6918,
    " posture": 6919,
    " office": 6920,
    "During": 6921,
    " temperately": 6922,
    "Lose": 6923,
    "Doubt": 6924,
    " commoners": 6925,
    " malice": 6926,
    " question": 6927,
    " napless": 6928,
    " vesture": 6929,
    " humility": 6930,
    " showing": 6931,
    " stinking": 6932,
    " suit": 6933,
    " gentry": 6934,
    " desire": 6935,
    " nobles": 6936,
    " hold": 6937,
    " wills": 6938,
    " destruction": 6939,
    " authorities": 6940,
    " suggest": 6941,
    " hatred": 6942,
    " still": 6943,
    " mules": 6944,
    " silenced": 6945,
    " pleaders": 6946,
    "Dispro": 6947,
    "Disproper": 6948,
    "Dispropertied": 6949,
    " freedoms": 6950,
    " capac": 6951,
    " capacity": 6952,
    " fitness": 6953,
    " camels": 6954,
    " provand": 6955,
    " burd": 6956,
    " burdens": 6957,
    " sore": 6958,
    " blows": 6959,
    " sinking": 6960,
    " suggested": 6961,
    " soaring": 6962,
    " easy": 6963,
    " sheep": 6964,
    " kindle": 6965,
    " stubble": 6966,
    " blaze": 6967,
    " darken": 6968,
    " throng": 6969,
    " matrons": 6970,
    " flung": 6971,
    " gloves": 6972,
    "Ladies": 6973,
    " maids": 6974,
    " scarfs": 6975,
    " handkerchers": 6976,
    " bended": 6977,
    " Jove": 6978,
    " statue": 6979,
    " commons": 6980,
    " shower": 6981,
    " event": 6982,
    " Officer": 6983,
    " consulships": 6984,
    " vengeance": 6985,
    "Faith": 6986,
    "flatter": 6987,
    "flattered": 6988,
    "wherefore": 6989,
    " ground": 6990,
    " manifests": 6991,
    " knowledge": 6992,
    "disposition": 6993,
    " carelessness": 6994,
    "them": 6995,
    " plainly": 6996,
    " waved": 6997,
    " indifferently": 6998,
    "twixt": 6999,
    " seeks": 7000,
    "devotion": 7001,
    "nothing": 7002,
    "oppos": 7003,
    "opposite": 7004,
    " Now": 7005,
    "displeasure": 7006,
    "disli": 7007,
    "dislikes": 7008,
    " deserved": 7009,
    " worthily": 7010,
    "ascent": 7011,
    " degrees": 7012,
    "having": 7013,
    " supple": 7014,
    " courteous": 7015,
    "bonnet": 7016,
    "bonneted": 7017,
    "planted": 7018,
    "silent": 7019,
    "ingrateful": 7020,
    " injury": 7021,
    " otherw": 7022,
    " otherwise": 7023,
    " giving": 7024,
    "reproof": 7025,
    " rebuke": 7026,
    " determined": 7027,
    " remains": 7028,
    "meeting": 7029,
    " gratify": 7030,
    " stood": 7031,
    "Most": 7032,
    "found": 7033,
    "Leave": 7034,
    " defective": 7035,
    " requital": 7036,
    " stretch": 7037,
    "Masters": 7038,
    " kindest": 7039,
    " loving": 7040,
    " passes": 7041,
    " convented": 7042,
    " pleasing": 7043,
    "Inclin": 7044,
    "Inclinable": 7045,
    " theme": 7046,
    " blest": 7047,
    " kinder": 7048,
    " hereto": 7049,
    " prized": 7050,
    " silent": 7051,
    " willingly": 7052,
    " caution": 7053,
    " pert": 7054,
    " pertinent": 7055,
    " loves": 7056,
    " tie": 7057,
    " bedfellow": 7058,
    "Sit": 7059,
    " horr": 7060,
    " horror": 7061,
    " heal": 7062,
    " disbench": 7063,
    " fled": 7064,
    " soothed": 7065,
    " scr": 7066,
    " scratch": 7067,
    " alarum": 7068,
    " idly": 7069,
    " nothings": 7070,
    " monster": 7071,
    " multiplying": 7072,
    "when": 7073,
    " limbs": 7074,
    " Proceed": 7075,
    " voice": 7076,
    " feebly": 7077,
    " chiefest": 7078,
    " dignifies": 7079,
    " haver": 7080,
    " singly": 7081,
    " counterpoised": 7082,
    " sixt": 7083,
    " sixteen": 7084,
    " Tarquin": 7085,
    "Bey": 7086,
    "Beyond": 7087,
    " dict": 7088,
    " dictator": 7089,
    "Whom": 7090,
    " Amazonian": 7091,
    " chin": 7092,
    " drove": 7093,
    " brist": 7094,
    " bristled": 7095,
    " lips": 7096,
    "Slew": 7097,
    " feats": 7098,
    " scene": 7099,
    " meed": 7100,
    " His": 7101,
    " pup": 7102,
    " pupil": 7103,
    " age": 7104,
    "enter": 7105,
    " waxed": 7106,
    " sea": 7107,
    " brunt": 7108,
    " seventeen": 7109,
    " lurch": 7110,
    " rare": 7111,
    " example": 7112,
    " terror": 7113,
    " weeds": 7114,
    " vessel": 7115,
    " stem": 7116,
    " timed": 7117,
    " dying": 7118,
    " cries": 7119,
    " mortal": 7120,
    " gate": 7121,
    " painted": 7122,
    " shunless": 7123,
    " destin": 7124,
    " destiny": 7125,
    " aidless": 7126,
    " reinforcement": 7127,
    "Corioli": 7128,
    " planet": 7129,
    " din": 7130,
    " gan": 7131,
    " pierce": 7132,
    " sense": 7133,
    " straight": 7134,
    " doubled": 7135,
    "quick": 7136,
    "quicken": 7137,
    " fatigate": 7138,
    "Run": 7139,
    " reeking": 7140,
    "Twere": 7141,
    " perpetual": 7142,
    " breast": 7143,
    " panting": 7144,
    " measure": 7145,
    " spoils": 7146,
    " kick": 7147,
    " precious": 7148,
    " muck": 7149,
    " cov": 7150,
    " covets": 7151,
    " rewards": 7152,
    "Officer": 7153,
    " owe": 7154,
    "erleap": 7155,
    "Put": 7156,
    " sake": 7157,
    " suffrage": 7158,
    " voices": 7159,
    " bate": 7160,
    " jot": 7161,
    " ceremony": 7162,
    " apart": 7163,
    " acting": 7164,
    " taken": 7165,
    " brag": 7166,
    " unaching": 7167,
    " scars": 7168,
    " recomm": 7169,
    " recommend": 7170,
    "Wish": 7171,
    "Sen": 7172,
    "Senators": 7173,
    " intends": 7174,
    " intent": 7175,
    " requested": 7176,
    " proceedings": 7177,
    " marketplace": 7178,
    "Once": 7179,
    " ought": 7180,
    " deny": 7181,
    " ourselves": 7182,
    "power": 7183,
    "his": 7184,
    "tongues": 7185,
    " also": 7186,
    " acceptance": 7187,
    " Ingr": 7188,
    " Ingratitude": 7189,
    "monstrous": 7190,
    " multitude": 7191,
    " ingrateful": 7192,
    "himself": 7193,
    " stuck": 7194,
    " called": 7195,
    " heads": 7196,
    " brown": 7197,
    " aub": 7198,
    " auburn": 7199,
    " wits": 7200,
    " diversely": 7201,
    " coloured": 7202,
    "truly": 7203,
    " skull": 7204,
    " north": 7205,
    " points": 7206,
    "Think": 7207,
    " Which": 7208,
    " judge": 7209,
    " strongly": 7210,
    " wedged": 7211,
    " block": 7212,
    " liberty": 7213,
    "twould": 7214,
    " southward": 7215,
    " fog": 7216,
    "mel": 7217,
    "melted": 7218,
    " dews": 7219,
    " fourth": 7220,
    " consci": 7221,
    " conscience": 7222,
    " tricks": 7223,
    " carries": 7224,
    " incline": 7225,
    "never": 7226,
    " worthier": 7227,
    "behavior": 7228,
    " twos": 7229,
    " requests": 7230,
    "particul": 7231,
    "particulars": 7232,
    " single": 7233,
    "honour": 7234,
    "Content": 7235,
    " Pray": 7236,
    "Plague": 7237,
    " breth": 7238,
    " brethren": 7239,
    " roar": 7240,
    " ran": 7241,
    " virtues": 7242,
    " divines": 7243,
    " teeth": 7244,
    " standing": 7245,
    "Mine": 7246,
    " desert": 7247,
    " trouble": 7248,
    "poor": 7249,
    " begging": 7250,
    " consulship": 7251,
    "Kindly": 7252,
    " Sir": 7253,
    "show": 7254,
    " private": 7255,
    " match": 7256,
    " There": 7257,
    "begged": 7258,
    " adieu": 7259,
    " tune": 7260,
    "voices": 7261,
    "customary": 7262,
    "Fourth": 7263,
    " enigm": 7264,
    " enigma": 7265,
    " scourge": 7266,
    "been": 7267,
    " rod": 7268,
    " virtuous": 7269,
    "sworn": 7270,
    "estimation": 7271,
    " wisdom": 7272,
    "rather": 7273,
    " pract": 7274,
    " practise": 7275,
    " insinuating": 7276,
    "counter": 7277,
    "counterfeit": 7278,
    "counterfeitly": 7279,
    " counterfeit": 7280,
    "bewitch": 7281,
    "bewitchment": 7282,
    "bount": 7283,
    "bountiful": 7284,
    " desirers": 7285,
    "Fifth": 7286,
    " heartily": 7287,
    " Citizens": 7288,
    " starve": 7289,
    " crave": 7290,
    " woolvish": 7291,
    " toge": 7292,
    " Hob": 7293,
    " Dick": 7294,
    " needless": 7295,
    " vouches": 7296,
    " Custom": 7297,
    " calls": 7298,
    " dust": 7299,
    " antiqu": 7300,
    " antique": 7301,
    " unswept": 7302,
    " mountainous": 7303,
    " error": 7304,
    " highly": 7305,
    " heapt": 7306,
    " Rather": 7307,
    "Watch": 7308,
    " thrice": 7309,
    " six": 7310,
    "Done": 7311,
    "Sixth": 7312,
    "Sevent": 7313,
    "Seventh": 7314,
    "Therefore": 7315,
    "Amen": 7316,
    " amen": 7317,
    " limitation": 7318,
    "Endue": 7319,
    " official": 7320,
    " marks": 7321,
    " invested": 7322,
    "Anon": 7323,
    " discharged": 7324,
    " admit": 7325,
    " summon": 7326,
    " anon": 7327,
    " approbation": 7328,
    " garments": 7329,
    " knowing": 7330,
    "Repair": 7331,
    "Fare": 7332,
    " methink": 7333,
    " humble": 7334,
    " chose": 7335,
    " unworthy": 7336,
    " notice": 7337,
    "Certain": 7338,
    "Certainly": 7339,
    " flouted": 7340,
    " downright": 7341,
    " amongst": 7342,
    " scornfully": 7343,
    "Citizens": 7344,
    " waving": 7345,
    " permit": 7346,
    " Was": 7347,
    " mockery": 7348,
    " either": 7349,
    " ignorant": 7350,
    " friendliness": 7351,
    "Could": 7352,
    " lesson": 7353,
    " spake": 7354,
    " libert": 7355,
    " liberties": 7356,
    " charters": 7357,
    " arriving": 7358,
    " potency": 7359,
    " malignantly": 7360,
    " plebeii": 7361,
    " curses": 7362,
    " claim": 7363,
    "Translate": 7364,
    " towards": 7365,
    "Standing": 7366,
    " friendly": 7367,
    " tried": 7368,
    " inclination": 7369,
    " surly": 7370,
    " easily": 7371,
    " endures": 7372,
    " article": 7373,
    "Tying": 7374,
    " putting": 7375,
    " rage": 7376,
    " advantage": 7377,
    " unelected": 7378,
    " solic": 7379,
    " solicit": 7380,
    " contempt": 7381,
    " bruising": 7382,
    " Why": 7383,
    " bodies": 7384,
    " rect": 7385,
    " rectorship": 7386,
    " judgment": 7387,
    " denied": 7388,
    " asker": 7389,
    " sued": 7390,
    " five": 7391,
    " twice": 7392,
    " piece": 7393,
    "Get": 7394,
    " instantly": 7395,
    " barking": 7396,
    " kept": 7397,
    " assemble": 7398,
    " safer": 7399,
    " revoke": 7400,
    " election": 7401,
    " enforce": 7402,
    " besides": 7403,
    "Thinking": 7404,
    " apprehension": 7405,
    " portance": 7406,
    " gib": 7407,
    " gibingly": 7408,
    " ungravely": 7409,
    "After": 7410,
    " inveter": 7411,
    " inveterate": 7412,
    " bears": 7413,
    "Lay": 7414,
    " laboured": 7415,
    "Cast": 7416,
    " commandment": 7417,
    " guided": 7418,
    " minds": 7419,
    "Preoccup": 7420,
    "Preoccupied": 7421,
    " Say": 7422,
    " lectures": 7423,
    " youngly": 7424,
    " began": 7425,
    " continued": 7426,
    " springs": 7427,
    " Marcians": 7428,
    " Ancus": 7429,
    " Num": 7430,
    " Numa": 7431,
    " Host": 7432,
    " Hostil": 7433,
    " Hostilius": 7434,
    " Publi": 7435,
    " Publius": 7436,
    " Quint": 7437,
    " Quintus": 7438,
    " water": 7439,
    " conduits": 7440,
    "Twice": 7441,
    " ancestor": 7442,
    " descended": 7443,
    " beside": 7444,
    " wrought": 7445,
    " remembr": 7446,
    " remembrances": 7447,
    "Scal": 7448,
    "Scaling": 7449,
    " fixed": 7450,
    "Harp": 7451,
    " presently": 7452,
    " drawn": 7453,
    "Repent": 7454,
    " mutiny": 7455,
    " hazard": 7456,
    " refusal": 7457,
    " observe": 7458,
    " anger": 7459,
    " goaded": 7460,
    " onward": 7461,
    " caused": 7462,
    " swif": 7463,
    " swifter": 7464,
    " composition": 7465,
    "Ready": 7466,
    " prompt": 7467,
    " road": 7468,
    " worn": 7469,
    " hardly": 7470,
    " ages": 7471,
    " bann": 7472,
    " banners": 7473,
    " wave": 7474,
    "Saw": 7475,
    " vilely": 7476,
    "Yielded": 7477,
    " retired": 7478,
    " Antium": 7479,
    "Spoke": 7480,
    " pawn": 7481,
    " fortunes": 7482,
    " hopeless": 7483,
    " restit": 7484,
    " restitution": 7485,
    " vanquis": 7486,
    " vanquisher": 7487,
    " oppose": 7488,
    "Behold": 7489,
    " despise": 7490,
    " prank": 7491,
    " sufferance": 7492,
    "Pass": 7493,
    "Tribunes": 7494,
    "Stop": 7495,
    " broil": 7496,
    " disclaim": 7497,
    " rule": 7498,
    " purposed": 7499,
    " plot": 7500,
    " curb": 7501,
    "Suffer": 7502,
    " rul": 7503,
    " ruled": 7504,
    " gratis": 7505,
    " repined": 7506,
    "Scandal": 7507,
    " suppliants": 7508,
    "Time": 7509,
    "pleas": 7510,
    "pleasers": 7511,
    " foes": 7512,
    " nobleness": 7513,
    " sithence": 7514,
    " unlike": 7515,
    "Each": 7516,
    " yond": 7517,
    " clouds": 7518,
    " tribune": 7519,
    " inquire": 7520,
    " gentler": 7521,
    " yoke": 7522,
    " abused": 7523,
    " paltering": 7524,
    "Becom": 7525,
    "Becomes": 7526,
    "Deserved": 7527,
    " laid": 7528,
    " falsely": 7529,
    " heat": 7530,
    " pard": 7531,
    " pardons": 7532,
    " mutable": 7533,
    "scented": 7534,
    "Reg": 7535,
    "Regard": 7536,
    "Therein": 7537,
    " nourish": 7538,
    " cockle": 7539,
    " sedition": 7540,
    " plough": 7541,
    " sow": 7542,
    " scatter": 7543,
    " mingling": 7544,
    " beggars": 7545,
    " fearing": 7546,
    "Coin": 7547,
    " decay": 7548,
    " measles": 7549,
    " tatter": 7550,
    " sought": 7551,
    " infirmity": 7552,
    "Choler": 7553,
    " midnight": 7554,
    " Trit": 7555,
    " Triton": 7556,
    " minn": 7557,
    " minnows": 7558,
    " absolute": 7559,
    "shall": 7560,
    "Twas": 7561,
    " unwise": 7562,
    " reckless": 7563,
    "Given": 7564,
    " Hy": 7565,
    " Hydra": 7566,
    " choose": 7567,
    " officer": 7568,
    " perempt": 7569,
    " peremptory": 7570,
    " horn": 7571,
    " current": 7572,
    " ditch": 7573,
    " chann": 7574,
    " channel": 7575,
    " vail": 7576,
    " ignorance": 7577,
    " awake": 7578,
    " len": 7579,
    " lenity": 7580,
    " cushions": 7581,
    " blended": 7582,
    " taste": 7583,
    " palates": 7584,
    " magistrate": 7585,
    " graver": 7586,
    " Greece": 7587,
    " consuls": 7588,
    " aches": 7589,
    "Neither": 7590,
    " suprem": 7591,
    " supreme": 7592,
    " confusion": 7593,
    " gap": 7594,
    "Whoever": 7595,
    " counsel": 7596,
    " storehouse": 7597,
    "Sometime": 7598,
    " disobedience": 7599,
    " fed": 7600,
    " ruin": 7601,
    " reas": 7602,
    " reasons": 7603,
    " recompense": 7604,
    " resting": 7605,
    " assured": 7606,
    " navel": 7607,
    " thread": 7608,
    " Being": 7609,
    " mutinies": 7610,
    " revolts": 7611,
    " accusation": 7612,
    " unborn": 7613,
    " motive": 7614,
    " donation": 7615,
    " Well": 7616,
    " courtesy": 7617,
    " demands": 7618,
    " Thus": 7619,
    " debase": 7620,
    " seats": 7621,
    "Break": 7622,
    " locks": 7623,
    " crows": 7624,
    " peck": 7625,
    " eagles": 7626,
    "Enough": 7627,
    "measure": 7628,
    " divine": 7629,
    "Seal": 7630,
    " withal": 7631,
    "Insult": 7632,
    "Cannot": 7633,
    " conclude": 7634,
    " omit": 7635,
    "Real": 7636,
    " necessities": 7637,
    " unstable": 7638,
    " slightness": 7639,
    "Noth": 7640,
    "Nothing": 7641,
    " fearful": 7642,
    " fund": 7643,
    " fundament": 7644,
    " fundamental": 7645,
    " multitud": 7646,
    " multitudinous": 7647,
    " lick": 7648,
    "Mang": 7649,
    "Mangles": 7650,
    " bereaves": 7651,
    " inte": 7652,
    " integr": 7653,
    " integrity": 7654,
    " having": 7655,
    " control": 7656,
    " spoken": 7657,
    " traitors": 7658,
    " despite": 7659,
    " depending": 7660,
    " obedience": 7661,
    " fails": 7662,
    "Manif": 7663,
    "Manifest": 7664,
    " treason": 7665,
    " aed": 7666,
    " aediles": 7667,
    " apprehended": 7668,
    "Attach": 7669,
    " traitorous": 7670,
    " innov": 7671,
    " innovator": 7672,
    " goat": 7673,
    " surety": 7674,
    "Aged": 7675,
    " bones": 7676,
    "Help": 7677,
    " sides": 7678,
    "Seize": 7679,
    " AEdiles": 7680,
    "Down": 7681,
    "Weapons": 7682,
    " weapons": 7683,
    "Patri": 7684,
    "Patricians": 7685,
    "Brutus": 7686,
    "Peace": 7687,
    "Stay": 7688,
    "Confusion": 7689,
    " Sicinius": 7690,
    " Speak": 7691,
    " fie": 7692,
    " unbuild": 7693,
    " establ": 7694,
    " establish": 7695,
    " roof": 7696,
    " foundation": 7697,
    " distinctly": 7698,
    " ranges": 7699,
    " heaps": 7700,
    " piles": 7701,
    " pronounce": 7702,
    " elected": 7703,
    "Bear": 7704,
    " Tar": 7705,
    " Tarpe": 7706,
    " Tarpeian": 7707,
    "AEdiles": 7708,
    " seize": 7709,
    "AEd": 7710,
    "AEdile": 7711,
    " ways": 7712,
    " prudent": 7713,
    " poisonous": 7714,
    " disease": 7715,
    " Lay": 7716,
    " fighting": 7717,
    " try": 7718,
    " Tribunes": 7719,
    "Sham": 7720,
    " barbarians": 7721,
    " calved": 7722,
    " porch": 7723,
    " forty": 7724,
    "two": 7725,
    " odds": 7726,
    " arithmetic": 7727,
    " manhood": 7728,
    " foolery": 7729,
    " falling": 7730,
    " tag": 7731,
    " rend": 7732,
    " interrupted": 7733,
    " waters": 7734,
    "erbear": 7735,
    " patch": 7736,
    " Patri": 7737,
    " Patrician": 7738,
    " marr": 7739,
    " Nept": 7740,
    " Neptune": 7741,
    " trid": 7742,
    " trident": 7743,
    " forges": 7744,
    " goodly": 7745,
    " abed": 7746,
    " viper": 7747,
    " depop": 7748,
    " depopulate": 7749,
    " thrown": 7750,
    " rigorous": 7751,
    " resisted": 7752,
    " trial": 7753,
    " severity": 7754,
    " sets": 7755,
    " nought": 7756,
    " hav": 7757,
    " havoc": 7758,
    " holp": 7759,
    " rescue": 7760,
    " worthiness": 7761,
    "Consul": 7762,
    " viperous": 7763,
    " eject": 7764,
    " decreed": 7765,
    " dies": 7766,
    " gratitude": 7767,
    "Tow": 7768,
    "Towards": 7769,
    " enroll": 7770,
    " unnatural": 7771,
    " limb": 7772,
    "Mortal": 7773,
    "Killing": 7774,
    " lost": 7775,
    " ounce": 7776,
    " dropp": 7777,
    " kam": 7778,
    "Merely": 7779,
    " awry": 7780,
    " gang": 7781,
    " gangren": 7782,
    " gangrened": 7783,
    " respected": 7784,
    "Pursue": 7785,
    "Lest": 7786,
    " infection": 7787,
    " catching": 7788,
    "Spread": 7789,
    " tiger": 7790,
    "foo": 7791,
    "footed": 7792,
    " unscann": 7793,
    " swiftness": 7794,
    "Tie": 7795,
    " pounds": 7796,
    " process": 7797,
    " beloved": 7798,
    " smote": 7799,
    " bred": 7800,
    " bolted": 7801,
    " language": 7802,
    " meal": 7803,
    " throws": 7804,
    " distin": 7805,
    " distinction": 7806,
    " Give": 7807,
    " undertake": 7808,
    " lawful": 7809,
    " humane": 7810,
    "Unknown": 7811,
    " beginning": 7812,
    "Meet": 7813,
    " pile": 7814,
    " hills": 7815,
    " precip": 7816,
    " precipitation": 7817,
    " muse": 7818,
    "Does": 7819,
    " approve": 7820,
    " wooll": 7821,
    " woollen": 7822,
    " vassals": 7823,
    " created": 7824,
    " groats": 7825,
    " bare": 7826,
    " cong": 7827,
    " congreg": 7828,
    " congregations": 7829,
    " yawn": 7830,
    " ordin": 7831,
    " ordinance": 7832,
    " milder": 7833,
    "False": 7834,
    " striving": 7835,
    " thwartings": 7836,
    " disposed": 7837,
    "too": 7838,
    " mend": 7839,
    " remedy": 7840,
    "Unless": 7841,
    "Cleave": 7842,
    " perish": 7843,
    " stoop": 7844,
    " craves": 7845,
    " armour": 7846,
    " scarcely": 7847,
    "Return": 7848,
    " therein": 7849,
    " extremities": 7850,
    "Honour": 7851,
    " policy": 7852,
    " unsever": 7853,
    " combine": 7854,
    "Tush": 7855,
    " tush": 7856,
    " demand": 7857,
    " ends": 7858,
    " adopt": 7859,
    " companionship": 7860,
    " prompts": 7861,
    " rooted": 7862,
    " bastards": 7863,
    " allowance": 7864,
    " bosom": 7865,
    " dishon": 7866,
    " dishonours": 7867,
    " dissemble": 7868,
    " stake": 7869,
    " required": 7870,
    " louts": 7871,
    " inheritance": 7872,
    " safeguard": 7873,
    " salve": 7874,
    " bonnet": 7875,
    " bussing": 7876,
    " stones": 7877,
    "Action": 7878,
    " eloquence": 7879,
    " learned": 7880,
    "waving": 7881,
    " correcting": 7882,
    " ripest": 7883,
    " mul": 7884,
    " mulber": 7885,
    " mulberry": 7886,
    " handling": 7887,
    " broils": 7888,
    " dost": 7889,
    " wilt": 7890,
    " frame": 7891,
    "Thyself": 7892,
    " forsooth": 7893,
    "Prithee": 7894,
    " although": 7895,
    " hadst": 7896,
    " fiery": 7897,
    " bower": 7898,
    " Here": 7899,
    " calmness": 7900,
    "twill": 7901,
    " thereto": 7902,
    " unbar": 7903,
    " unbarbed": 7904,
    " sconce": 7905,
    " grind": 7906,
    " discharge": 7907,
    " throat": 7908,
    " quired": 7909,
    " pipe": 7910,
    "Small": 7911,
    " eun": 7912,
    " eunuch": 7913,
    " babies": 7914,
    " lulls": 7915,
    " asle": 7916,
    " asleep": 7917,
    "Tent": 7918,
    " schoolb": 7919,
    " schoolboys": 7920,
    " glasses": 7921,
    " stirrup": 7922,
    " bend": 7923,
    " surce": 7924,
    " surcease": 7925,
    " inherent": 7926,
    " baseness": 7927,
    " stoutness": 7928,
    " valiantness": 7929,
    "dst": 7930,
    " thyself": 7931,
    "Mother": 7932,
    " going": 7933,
    "Chide": 7934,
    " mounte": 7935,
    " mounteb": 7936,
    " mountebank": 7937,
    "Cog": 7938,
    " Look": 7939,
    "Commend": 7940,
    " flattery": 7941,
    " mildly": 7942,
    "mildly": 7943,
    " accuse": 7944,
    " invention": 7945,
    " Mildly": 7946,
    " affects": 7947,
    "Tyrannical": 7948,
    " evade": 7949,
    "Enforce": 7950,
    " distri": 7951,
    " distribut": 7952,
    " distributed": 7953,
    " accompan": 7954,
    " accompanied": 7955,
    " catal": 7956,
    " catalogue": 7957,
    " procured": 7958,
    " collected": 7959,
    " tribes": 7960,
    "Assemble": 7961,
    " banishment": 7962,
    "Fine": 7963,
    "Insisting": 7964,
    " prer": 7965,
    " prerog": 7966,
    " prerogative": 7967,
    " begun": 7968,
    " confused": 7969,
    " sentence": 7970,
    " hint": 7971,
    " contradiction": 7972,
    " chafed": 7973,
    " temperance": 7974,
    "Calm": 7975,
    "Calmly": 7976,
    " ostler": 7977,
    " knave": 7978,
    " volume": 7979,
    " safety": 7980,
    " chairs": 7981,
    "Supplied": 7982,
    " plant": 7983,
    "Throng": 7984,
    " large": 7985,
    " temples": 7986,
    " streets": 7987,
    " Aud": 7988,
    " Audience": 7989,
    " Peace": 7990,
    " determine": 7991,
    " submit": 7992,
    "Allow": 7993,
    " warlike": 7994,
    " graves": 7995,
    " holy": 7996,
    " churchyard": 7997,
    "Scratches": 7998,
    " briers": 7999,
    "Scars": 8000,
    " laughter": 8001,
    " citizen": 8002,
    " rougher": 8003,
    " accents": 8004,
    "Answer": 8005,
    " contrived": 8006,
    " season": 8007,
    "Yours": 8008,
    "Yourself": 8009,
    " tyrannical": 8010,
    " injurious": 8011,
    " deaths": 8012,
    " clutch": 8013,
    " millions": 8014,
    " lying": 8015,
    " liest": 8016,
    "Beating": 8017,
    " cursing": 8018,
    "Opposing": 8019,
    " laws": 8020,
    " defying": 8021,
    " criminal": 8022,
    " capital": 8023,
    " extremest": 8024,
    "Served": 8025,
    " prate": 8026,
    "Vagabond": 8027,
    " raying": 8028,
    " linger": 8029,
    " cheque": 8030,
    " morrow": 8031,
    "Envied": 8032,
    " hostile": 8033,
    " presence": 8034,
    " dreaded": 8035,
    " ministers": 8036,
    " distribute": 8037,
    " instant": 8038,
    " sentenced": 8039,
    " profound": 8040,
    " estimate": 8041,
    " loins": 8042,
    " drift": 8043,
    " fens": 8044,
    " dead": 8045,
    " carc": 8046,
    " carcasses": 8047,
    " unbu": 8048,
    " unburied": 8049,
    " uncertainty": 8050,
    " feeble": 8051,
    " nodding": 8052,
    " plumes": 8053,
    "Fan": 8054,
    " Have": 8055,
    " defenders": 8056,
    " feels": 8057,
    "Making": 8058,
    " reservation": 8059,
    "Abated": 8060,
    " captives": 8061,
    " nation": 8062,
    " Desp": 8063,
    " Despising": 8064,
    " els": 8065,
    " elsew": 8066,
    " elsewhere": 8067,
    " vexation": 8068,
    " preserve": 8069,
    " butts": 8070,
    " extremity": 8071,
    " trier": 8072,
    " spirits": 8073,
    " chances": 8074,
    " boats": 8075,
    " mastership": 8076,
    " flo": 8077,
    " floating": 8078,
    " cunning": 8079,
    " load": 8080,
    " precepts": 8081,
    " invin": 8082,
    " invincible": 8083,
    " heavens": 8084,
    " pestilence": 8085,
    " occupations": 8086,
    "Resume": 8087,
    " Herc": 8088,
    " Hercules": 8089,
    " labours": 8090,
    " saved": 8091,
    "Droop": 8092,
    " Farewell": 8093,
    " salter": 8094,
    " younger": 8095,
    " venomous": 8096,
    "Heart": 8097,
    "hardening": 8098,
    " spectacles": 8099,
    " women": 8100,
    " wail": 8101,
    " inev": 8102,
    " inevitable": 8103,
    " wot": 8104,
    " hazards": 8105,
    " solace": 8106,
    "Believe": 8107,
    " lightly": 8108,
    " lonely": 8109,
    " dragon": 8110,
    " fen": 8111,
    "Makes": 8112,
    " caut": 8113,
    " cautel": 8114,
    " cautelous": 8115,
    " baits": 8116,
    " Take": 8117,
    " exposture": 8118,
    " starts": 8119,
    " shalt": 8120,
    " mayst": 8121,
    " cool": 8122,
    " needer": 8123,
    " rove": 8124,
    " unbruised": 8125,
    " dearest": 8126,
    " above": 8127,
    " formerly": 8128,
    " sided": 8129,
    " shown": 8130,
    " humbler": 8131,
    "Dismiss": 8132,
    " hoarded": 8133,
    "Requite": 8134,
    " loud": 8135,
    " weeping": 8136,
    " mank": 8137,
    " mankind": 8138,
    " Note": 8139,
    " Hadst": 8140,
    " foxship": 8141,
    " blessed": 8142,
    " Ara": 8143,
    " Arab": 8144,
    " Arabia": 8145,
    " tribe": 8146,
    " posterity": 8147,
    "Bastards": 8148,
    " unknit": 8149,
    " knot": 8150,
    "Cats": 8151,
    " myster": 8152,
    " mysteries": 8153,
    " Ere": 8154,
    " meanest": 8155,
    " baited": 8156,
    " Could": 8157,
    " unclog": 8158,
    "Anger": 8159,
    " feeding": 8160,
    " pul": 8161,
    " puling": 8162,
    "Roman": 8163,
    " Adrian": 8164,
    "Vols": 8165,
    "Volsce": 8166,
    "Nicanor": 8167,
    " approved": 8168,
    "news": 8169,
    " Volscian": 8170,
    " insurrections": 8171,
    " ended": 8172,
    " Our": 8173,
    " thinks": 8174,
    "hope": 8175,
    " division": 8176,
    " flame": 8177,
    " ripe": 8178,
    " aptness": 8179,
    "their": 8180,
    " glowing": 8181,
    " mature": 8182,
    "breaking": 8183,
    " banished": 8184,
    "Banished": 8185,
    " intelligence": 8186,
    " Nicanor": 8187,
    "said": 8188,
    " fittest": 8189,
    " fallen": 8190,
    " opposer": 8191,
    " fortunate": 8192,
    "accident": 8193,
    "accidentally": 8194,
    "business": 8195,
    " merrily": 8196,
    " accompany": 8197,
    " supper": 8198,
    "strange": 8199,
    " tending": 8200,
    " adversaries": 8201,
    " centuri": 8202,
    " centurions": 8203,
    "distinctly": 8204,
    " billeted": 8205,
    " entertainment": 8206,
    " warning": 8207,
    " joyful": 8208,
    " readiness": 8209,
    " City": 8210,
    " edif": 8211,
    " edifices": 8212,
    "fore": 8213,
    " groan": 8214,
    " spits": 8215,
    " boys": 8216,
    " puny": 8217,
    " slay": 8218,
    "Save": 8219,
    "Citizen": 8220,
    " feasts": 8221,
    "Thank": 8222,
    " slippery": 8223,
    " turns": 8224,
    " Friends": 8225,
    "Whose": 8226,
    " bosoms": 8227,
    " twin": 8228,
    "Unsepar": 8229,
    "Unseparable": 8230,
    " dissension": 8231,
    " bitterest": 8232,
    " enmity": 8233,
    " fellest": 8234,
    " passions": 8235,
    " plots": 8236,
    " trick": 8237,
    " interjoin": 8238,
    " issues": 8239,
    " Serving": 8240,
    " Servingman": 8241,
    "Wine": 8242,
    " Cot": 8243,
    " Cotus": 8244,
    " smells": 8245,
    " guest": 8246,
    "Whence": 8247,
    " Has": 8248,
    " porter": 8249,
    " entrance": 8250,
    " companions": 8251,
    " troublesome": 8252,
    " talked": 8253,
    " avoid": 8254,
    " hearth": 8255,
    " marvellous": 8256,
    "station": 8257,
    " function": 8258,
    " batten": 8259,
    " bits": 8260,
    " dwellest": 8261,
    " canop": 8262,
    " canopy": 8263,
    " kites": 8264,
    " daws": 8265,
    " meddle": 8266,
    " honester": 8267,
    "mistress": 8268,
    " pratest": 8269,
    "trench": 8270,
    "trencher": 8271,
    " beaten": 8272,
    "distur": 8273,
    "disturbing": 8274,
    " comest": 8275,
    " knowest": 8276,
    " necessity": 8277,
    "Commands": 8278,
    " unmusic": 8279,
    " unmusical": 8280,
    " Volscians": 8281,
    " harsh": 8282,
    " appearance": 8283,
    "Bears": 8284,
    " tackle": 8285,
    " torn": 8286,
    "Prepare": 8287,
    "thou": 8288,
    " particularly": 8289,
    " surn": 8290,
    " surname": 8291,
    " painful": 8292,
    " extreme": 8293,
    " dangers": 8294,
    " drops": 8295,
    "Shed": 8296,
    " thankless": 8297,
    " requited": 8298,
    " displeasure": 8299,
    " cruelty": 8300,
    "Permitted": 8301,
    " dastard": 8302,
    " forsook": 8303,
    "Whoop": 8304,
    "Mistake": 8305,
    "voided": 8306,
    " mere": 8307,
    " spite": 8308,
    " quit": 8309,
    " banishers": 8310,
    " Then": 8311,
    " wreak": 8312,
    "Thine": 8313,
    " wrongs": 8314,
    " stop": 8315,
    " maims": 8316,
    "thee": 8317,
    " revengeful": 8318,
    " benefits": 8319,
    " canker": 8320,
    " spleen": 8321,
    " fiends": 8322,
    " darest": 8323,
    "Longer": 8324,
    "Drawn": 8325,
    " tuns": 8326,
    " unless": 8327,
    " weeded": 8328,
    " twine": 8329,
    " grained": 8330,
    " scarr": 8331,
    " splinters": 8332,
    " anv": 8333,
    " anvil": 8334,
    " contest": 8335,
    " hotly": 8336,
    "Contend": 8337,
    " Know": 8338,
    " married": 8339,
    "Sigh": 8340,
    " truer": 8341,
    " dances": 8342,
    " rapt": 8343,
    " wedded": 8344,
    "Bestride": 8345,
    " threshold": 8346,
    " tar": 8347,
    " target": 8348,
    " brawn": 8349,
    "Twelve": 8350,
    " nightly": 8351,
    "Dreamt": 8352,
    " encount": 8353,
    " encounters": 8354,
    "Unbuckling": 8355,
    " fisting": 8356,
    " waked": 8357,
    " Worthy": 8358,
    " muster": 8359,
    " twelve": 8360,
    " seventy": 8361,
    " pouring": 8362,
    " bowels": 8363,
    " ung": 8364,
    " ungrateful": 8365,
    " flood": 8366,
    " taking": 8367,
    " territor": 8368,
    " territories": 8369,
    " leading": 8370,
    " revenges": 8371,
    " experienced": 8372,
    " weakness": 8373,
    "thine": 8374,
    " rudely": 8375,
    " remote": 8376,
    " alteration": 8377,
    " strucken": 8378,
    " cud": 8379,
    " cudgel": 8380,
    " clothes": 8381,
    "false": 8382,
    " turned": 8383,
    "finger": 8384,
    " thumb": 8385,
    " knew": 8386,
    " methought": 8387,
    "cannot": 8388,
    " term": 8389,
    " looking": 8390,
    " hanged": 8391,
    " simp": 8392,
    " simply": 8393,
    " rarest": 8394,
    "Worth": 8395,
    "greater": 8396,
    " defence": 8397,
    " excellent": 8398,
    " assault": 8399,
    " partake": 8400,
    " nations": 8401,
    "lieve": 8402,
    "Wherefore": 8403,
    " wherefore": 8404,
    " thwack": 8405,
    "thwack": 8406,
    " scot": 8407,
    " scotched": 8408,
    " notched": 8409,
    " ado": 8410,
    " cannibally": 8411,
    "broiled": 8412,
    " eaten": 8413,
    " upper": 8414,
    " asked": 8415,
    " sanctifies": 8416,
    "turn": 8417,
    "turns": 8418,
    " discourse": 8419,
    " bottom": 8420,
    " middle": 8421,
    "yesterday": 8422,
    " entreaty": 8423,
    " sowl": 8424,
    " passage": 8425,
    " polled": 8426,
    " imagine": 8427,
    "many": 8428,
    " durst": 8429,
    " whilst": 8430,
    " directitude": 8431,
    "Directitude": 8432,
    " crest": 8433,
    "burrows": 8434,
    " conies": 8435,
    " revel": 8436,
    "morrow": 8437,
    "drum": 8438,
    "parc": 8439,
    "parcel": 8440,
    " executed": 8441,
    "wipe": 8442,
    " stirring": 8443,
    " iron": 8444,
    "tailors": 8445,
    " breed": 8446,
    " ballad": 8447,
    " exceeds": 8448,
    " sprit": 8449,
    " spritely": 8450,
    " waking": 8451,
    " audible": 8452,
    "full": 8453,
    " apople": 8454,
    " apoplexy": 8455,
    " leth": 8456,
    " lethar": 8457,
    " lethargy": 8458,
    "mulled": 8459,
    " deaf": 8460,
    " sleepy": 8461,
    " insens": 8462,
    " insensible": 8463,
    " getter": 8464,
    "bastard": 8465,
    " destroyer": 8466,
    " ravisher": 8467,
    " maker": 8468,
    " cuckolds": 8469,
    "Reason": 8470,
    " because": 8471,
    " money": 8472,
    " rising": 8473,
    " remedies": 8474,
    " tame": 8475,
    " quietness": 8476,
    " hurry": 8477,
    "Blush": 8478,
    "Dissentious": 8479,
    " pestering": 8480,
    " tradesmen": 8481,
    " shops": 8482,
    "About": 8483,
    " functions": 8484,
    " commonwealth": 8485,
    " temporized": 8486,
    "Ourselves": 8487,
    "Live": 8488,
    " thrive": 8489,
    " happier": 8490,
    " comely": 8491,
    "Crying": 8492,
    " insolent": 8493,
    "ercome": 8494,
    " thinking": 8495,
    "Self": 8496,
    "loving": 8497,
    " affecting": 8498,
    " throne": 8499,
    "Without": 8500,
    " assistance": 8501,
    " lamentation": 8502,
    " prevented": 8503,
    "Sits": 8504,
    "Reports": 8505,
    " deepest": 8506,
    "Destroy": 8507,
    "Thrust": 8508,
    "Thrusts": 8509,
    " insh": 8510,
    " inshell": 8511,
    " rumourer": 8512,
    " examples": 8513,
    " information": 8514,
    " messenger": 8515,
    " bids": 8516,
    " beware": 8517,
    " possible": 8518,
    " countenances": 8519,
    " raising": 8520,
    " seconded": 8521,
    " freely": 8522,
    " prob": 8523,
    " probable": 8524,
    "Join": 8525,
    " spacious": 8526,
    " oldest": 8527,
    "Raised": 8528,
    " weaker": 8529,
    " unlikely": 8530,
    " atone": 8531,
    " violentest": 8532,
    " contrariety": 8533,
    " Messenger": 8534,
    " led": 8535,
    "Associ": 8536,
    "Associated": 8537,
    " rages": 8538,
    "erborn": 8539,
    "erborne": 8540,
    " consumed": 8541,
    " ravish": 8542,
    " daughters": 8543,
    " melt": 8544,
    " pates": 8545,
    " noses": 8546,
    " burned": 8547,
    " cement": 8548,
    " franch": 8549,
    " franchises": 8550,
    " whereon": 8551,
    " confined": 8552,
    " auger": 8553,
    " bore": 8554,
    " deity": 8555,
    " brats": 8556,
    " confidence": 8557,
    " pursuing": 8558,
    " summer": 8559,
    " butterflies": 8560,
    " butchers": 8561,
    " killing": 8562,
    " flies": 8563,
    " apr": 8564,
    " apron": 8565,
    " occupation": 8566,
    " garlic": 8567,
    "eaters": 8568,
    " mellow": 8569,
    " All": 8570,
    " regions": 8571,
    " smilingly": 8572,
    " resist": 8573,
    "Deserve": 8574,
    " shepherds": 8575,
    " consume": 8576,
    " crafted": 8577,
    " trembling": 8578,
    " incap": 8579,
    " incapable": 8580,
    " clusters": 8581,
    " hoot": 8582,
    " obeys": 8583,
    " desperation": 8584,
    " unwholesome": 8585,
    " greas": 8586,
    " greasy": 8587,
    " hooting": 8588,
    " cox": 8589,
    " coxcom": 8590,
    " coxcombs": 8591,
    " tumble": 8592,
    " consented": 8593,
    " Shall": 8594,
    " dismay": 8595,
    " Would": 8596,
    " witchcraft": 8597,
    " soldiers": 8598,
    " using": 8599,
    " lame": 8600,
    " proudlier": 8601,
    " changeling": 8602,
    " amended": 8603,
    " solely": 8604,
    " understand": 8605,
    " urge": 8606,
    " Although": 8607,
    " seems": 8608,
    " apparent": 8609,
    " fairly": 8610,
    " husbandry": 8611,
    "Fights": 8612,
    " achieve": 8613,
    "Whene": 8614,
    " sits": 8615,
    " expel": 8616,
    " osp": 8617,
    " osprey": 8618,
    " sovereignty": 8619,
    " First": 8620,
    "Carry": 8621,
    " taints": 8622,
    " happy": 8623,
    " fail": 8624,
    " disposing": 8625,
    " moving": 8626,
    " casque": 8627,
    " cushion": 8628,
    " commanding": 8629,
    " austerity": 8630,
    " garb": 8631,
    " controll": 8632,
    " spices": 8633,
    "made": 8634,
    " choke": 8635,
    " utterance": 8636,
    " interpretation": 8637,
    " commendable": 8638,
    " tomb": 8639,
    " evident": 8640,
    " drives": 8641,
    " nail": 8642,
    "Rights": 8643,
    " rights": 8644,
    " falter": 8645,
    " strengths": 8646,
    " shortly": 8647,
    " coy": 8648,
    " urged": 8649,
    " acquaintance": 8650,
    " forb": 8651,
    " forbad": 8652,
    " names": 8653,
    " titleless": 8654,
    " forged": 8655,
    " rack": 8656,
    " coals": 8657,
    " expected": 8658,
    " offer": 8659,
    " awaken": 8660,
    " regard": 8661,
    " noisome": 8662,
    " chaff": 8663,
    " unburn": 8664,
    " unburnt": 8665,
    " grains": 8666,
    " smelt": 8667,
    " burnt": 8668,
    "need": 8669,
    "needed": 8670,
    "Upbra": 8671,
    "Upbraid": 8672,
    " pleader": 8673,
    "Might": 8674,
    " countryman": 8675,
    "Unheard": 8676,
    "shot": 8677,
    " unkindness": 8678,
    "must": 8679,
    " intended": 8680,
    " bite": 8681,
    " unhear": 8682,
    " unhearts": 8683,
    " unfill": 8684,
    " pout": 8685,
    " unapt": 8686,
    " forgive": 8687,
    " conveyances": 8688,
    " suppler": 8689,
    " fasts": 8690,
    " kindness": 8691,
    "Speed": 8692,
    " gaoler": 8693,
    " kneel": 8694,
    " faintly": 8695,
    "Rise": 8696,
    " speechless": 8697,
    " writing": 8698,
    "Bound": 8699,
    " oath": 8700,
    " conditions": 8701,
    " embraced": 8702,
    " lots": 8703,
    " blanks": 8704,
    " passable": 8705,
    " lover": 8706,
    " acts": 8707,
    " unpar": 8708,
    " unparallel": 8709,
    " haply": 8710,
    " amplified": 8711,
    " verified": 8712,
    " size": 8713,
    " verity": 8714,
    " laps": 8715,
    " lapsing": 8716,
    " sometimes": 8717,
    " bowl": 8718,
    " tumbled": 8719,
    " leasing": 8720,
    "behalf": 8721,
    " uttered": 8722,
    " chastely": 8723,
    "always": 8724,
    " factionary": 8725,
    "Howsoever": 8726,
    " liar": 8727,
    " telling": 8728,
    " canst": 8729,
    " dinner": 8730,
    " pushed": 8731,
    "def": 8732,
    "defender": 8733,
    "ignorance": 8734,
    "front": 8735,
    " groans": 8736,
    " virginal": 8737,
    " palms": 8738,
    " palsied": 8739,
    " intercess": 8740,
    " intercession": 8741,
    " decayed": 8742,
    " dotant": 8743,
    "intended": 8744,
    "such": 8745,
    " No": 8746,
    " deceived": 8747,
    "therefore": 8748,
    " prepare": 8749,
    " reprieve": 8750,
    "Sirrah": 8751,
    " captain": 8752,
    " Back": 8753,
    " lest": 8754,
    "pint": 8755,
    " errand": 8756,
    "perceive": 8757,
    " Jack": 8758,
    " guardant": 8759,
    " standest": 8760,
    "hanging": 8761,
    "spect": 8762,
    "spectators": 8763,
    "spectatorship": 8764,
    " cruell": 8765,
    " crueller": 8766,
    "presently": 8767,
    " swoon": 8768,
    " glorious": 8769,
    " hourly": 8770,
    " syn": 8771,
    " synod": 8772,
    "particular": 8773,
    " preparing": 8774,
    " blown": 8775,
    "sigh": 8776,
    "sighs": 8777,
    " conjure": 8778,
    "petition": 8779,
    "petitionary": 8780,
    " assuage": 8781,
    "wrath": 8782,
    " dre": 8783,
    " dregs": 8784,
    " varlet": 8785,
    "access": 8786,
    "Wife": 8787,
    " affairs": 8788,
    " servanted": 8789,
    " properly": 8790,
    " remission": 8791,
    " That": 8792,
    "Ing": 8793,
    "Ingrate": 8794,
    " forgetfulness": 8795,
    " suits": 8796,
    " stronger": 8797,
    " writ": 8798,
    " rent": 8799,
    " Another": 8800,
    " spell": 8801,
    " shent": 8802,
    " keeping": 8803,
    "greatness": 8804,
    " scarce": 8805,
    "ye": 8806,
    " Away": 8807,
    "oak": 8808,
    "shaken": 8809,
    " tomorrow": 8810,
    " partner": 8811,
    " admitted": 8812,
    "Loved": 8813,
    " godded": 8814,
    " Their": 8815,
    " latest": 8816,
    " refuge": 8817,
    " sourly": 8818,
    " yielded": 8819,
    " embassies": 8820,
    " Ha": 8821,
    " tempted": 8822,
    " infringe": 8823,
    " trun": 8824,
    " trunk": 8825,
    " framed": 8826,
    " grandchild": 8827,
    " obstinate": 8828,
    " curt": 8829,
    "sy": 8830,
    " doves": 8831,
    " forsworn": 8832,
    " Olympus": 8833,
    " mole": 8834,
    " moleh": 8835,
    " molehill": 8836,
    " supplic": 8837,
    " supplication": 8838,
    " aspect": 8839,
    "Plough": 8840,
    " harrow": 8841,
    " Ital": 8842,
    " Italy": 8843,
    " gos": 8844,
    " gosling": 8845,
    " instinct": 8846,
    " kin": 8847,
    " delivers": 8848,
    " changed": 8849,
    " actor": 8850,
    " Best": 8851,
    "Forgive": 8852,
    " tyranny": 8853,
    " queen": 8854,
    " carried": 8855,
    " unsal": 8856,
    " unsaluted": 8857,
    " duty": 8858,
    " impression": 8859,
    " sof": 8860,
    " softer": 8861,
    " flint": 8862,
    " unproperly": 8863,
    " mistaken": 8864,
    "Between": 8865,
    " corrected": 8866,
    " pebb": 8867,
    " pebbles": 8868,
    " beach": 8869,
    "Fillip": 8870,
    " stars": 8871,
    " winds": 8872,
    " cedars": 8873,
    "Murdering": 8874,
    " impossibility": 8875,
    " warrior": 8876,
    " Public": 8877,
    " Publicola": 8878,
    " chaste": 8879,
    " ic": 8880,
    " icic": 8881,
    " icicle": 8882,
    " curd": 8883,
    " curdied": 8884,
    " purest": 8885,
    " hangs": 8886,
    " Dian": 8887,
    " temple": 8888,
    " epitome": 8889,
    " unv": 8890,
    " unvul": 8891,
    " unvulner": 8892,
    " unvulnerable": 8893,
    " stick": 8894,
    "mark": 8895,
    " saving": 8896,
    " sirrah": 8897,
    " suitors": 8898,
    " denials": 8899,
    " capit": 8900,
    " capitulate": 8901,
    "Again": 8902,
    " mech": 8903,
    " mechan": 8904,
    " mechanics": 8905,
    " ally": 8906,
    " colder": 8907,
    " hardness": 8908,
    " raiment": 8909,
    " bewray": 8910,
    " unfortunate": 8911,
    " living": 8912,
    " dance": 8913,
    " comforts": 8914,
    "Const": 8915,
    "Constrains": 8916,
    " tearing": 8917,
    " And": 8918,
    "Alas": 8919,
    "Whereto": 8920,
    " victory": 8921,
    " alack": 8922,
    " foreign": 8923,
    " recreant": 8924,
    "triumph": 8925,
    "triumphantly": 8926,
    " bravely": 8927,
    " persuade": 8928,
    " sooner": 8929,
    "Trust": 8930,
    "Living": 8931,
    " bigger": 8932,
    " tenderness": 8933,
    "Requires": 8934,
    " tend": 8935,
    " thereby": 8936,
    " reconcile": 8937,
    "hail": 8938,
    " reap": 8939,
    " dogg": 8940,
    " chronicle": 8941,
    " wiped": 8942,
    " ensuing": 8943,
    " affected": 8944,
    " strains": 8945,
    " imit": 8946,
    " imitate": 8947,
    " graces": 8948,
    " wide": 8949,
    " bolt": 8950,
    " rive": 8951,
    " Daughter": 8952,
    "Perhaps": 8953,
    " childishness": 8954,
    " stocks": 8955,
    " hen": 8956,
    " brood": 8957,
    " cluck": 8958,
    "Load": 8959,
    "Loaden": 8960,
    " spurn": 8961,
    " belongs": 8962,
    " Down": 8963,
    " kneels": 8964,
    " holds": 8965,
    " fellowship": 8966,
    " hush": 8967,
    " until": 8968,
    "fire": 8969,
    " Behold": 8970,
    "believe": 8971,
    " dangerously": 8972,
    " stead": 8973,
    " advise": 8974,
    "seal": 8975,
    " Ladies": 8976,
    " built": 8977,
    " confederate": 8978,
    " coign": 8979,
    "corn": 8980,
    "corner": 8981,
    " displace": 8982,
    "little": 8983,
    " throats": 8984,
    "sentenced": 8985,
    "condition": 8986,
    " differency": 8987,
    " grub": 8988,
    " butterfly": 8989,
    " wings": 8990,
    "cre": 8991,
    "creeping": 8992,
    " dearly": 8993,
    " remembers": 8994,
    "year": 8995,
    " tart": 8996,
    " tartness": 8997,
    " sours": 8998,
    " grapes": 8999,
    " walks": 9000,
    "moves": 9001,
    " engine": 9002,
    " shrinks": 9003,
    " treading": 9004,
    " able": 9005,
    " cors": 9006,
    " corslet": 9007,
    " talks": 9008,
    " knell": 9009,
    "battery": 9010,
    "Alexander": 9011,
    " finished": 9012,
    " bidding": 9013,
    " eternity": 9014,
    " paint": 9015,
    " Mark": 9016,
    "mother": 9017,
    " male": 9018,
    " case": 9019,
    " returning": 9020,
    "trib": 9021,
    "tribune": 9022,
    " hale": 9023,
    " swearing": 9024,
    " inches": 9025,
    " dislod": 9026,
    " dislodged": 9027,
    " merrier": 9028,
    " expul": 9029,
    " expulsion": 9030,
    " Tarqu": 9031,
    " Tarquins": 9032,
    "Friend": 9033,
    "Art": 9034,
    " lurk": 9035,
    " arch": 9036,
    " hurried": 9037,
    " tide": 9038,
    " recomforted": 9039,
    " sackbut": 9040,
    " sackbuts": 9041,
    " psalter": 9042,
    " psalteries": 9043,
    " fifes": 9044,
    "Tabours": 9045,
    " cym": 9046,
    " cymb": 9047,
    " cymbals": 9048,
    " shouting": 9049,
    " Hark": 9050,
    " Vol": 9051,
    " Volumn": 9052,
    " Volumnia": 9053,
    " land": 9054,
    " tidings": 9055,
    " nex": 9056,
    " next": 9057,
    "Accept": 9058,
    " thankfulness": 9059,
    "Almost": 9060,
    " patroness": 9061,
    " triumphant": 9062,
    " strew": 9063,
    " flowers": 9064,
    "Unshout": 9065,
    "Repeal": 9066,
    "Deliver": 9067,
    " paper": 9068,
    " repair": 9069,
    " Him": 9070,
    "Intends": 9071,
    " hoping": 9072,
    " purge": 9073,
    " herself": 9074,
    " Conspirator": 9075,
    " empoison": 9076,
    " charity": 9077,
    " slain": 9078,
    "Twixt": 9079,
    " difference": 9080,
    " surv": 9081,
    " surviv": 9082,
    " survivor": 9083,
    " pretext": 9084,
    " admits": 9085,
    " construction": 9086,
    " raised": 9087,
    " heighten": 9088,
    " plants": 9089,
    "Seducing": 9090,
    " unswayable": 9091,
    " stooping": 9092,
    "Presented": 9093,
    " knife": 9094,
    "servant": 9095,
    " files": 9096,
    " projects": 9097,
    " accomplish": 9098,
    " freshest": 9099,
    " served": 9100,
    " designments": 9101,
    " follower": 9102,
    " waged": 9103,
    " mercen": 9104,
    " mercenary": 9105,
    " glory": 9106,
    " sinews": 9107,
    " few": 9108,
    " rheum": 9109,
    " renew": 9110,
    " native": 9111,
    " returns": 9112,
    "Splitting": 9113,
    " pronounced": 9114,
    " Lords": 9115,
    " heed": 9116,
    " perused": 9117,
    " written": 9118,
    "Lords": 9119,
    " Lord": 9120,
    " grieve": 9121,
    " fines": 9122,
    " levies": 9123,
    " answering": 9124,
    " yielding": 9125,
    " infected": 9126,
    " parted": 9127,
    " subsisting": 9128,
    " prosperously": 9129,
    " attempted": 9130,
    " counterpoise": 9131,
    "Subsc": 9132,
    "Subscri": 9133,
    "Subscribed": 9134,
    "Together": 9135,
    " compounded": 9136,
    "Read": 9137,
    " degree": 9138,
    "Traitor": 9139,
    " robbery": 9140,
    " perfid": 9141,
    " perfidiously": 9142,
    " salt": 9143,
    "Breaking": 9144,
    " resolution": 9145,
    " twist": 9146,
    " admitting": 9147,
    "Counsel": 9148,
    " whined": 9149,
    " pages": 9150,
    " wondering": 9151,
    "Name": 9152,
    "Measureless": 9153,
    " contains": 9154,
    " Boy": 9155,
    "Pardon": 9156,
    " scold": 9157,
    " judgments": 9158,
    " notion": 9159,
    " wears": 9160,
    " stripes": 9161,
    " impress": 9162,
    " beating": 9163,
    "Cut": 9164,
    " pieces": 9165,
    " lads": 9166,
    "Stain": 9167,
    " edges": 9168,
    " hound": 9169,
    " annals": 9170,
    " eagle": 9171,
    " dove": 9172,
    "cote": 9173,
    "Flut": 9174,
    "Flutter": 9175,
    " unholy": 9176,
    " braggart": 9177,
    " Conspirators": 9178,
    " People": 9179,
    "Tear": 9180,
    " killed": 9181,
    " cousin": 9182,
    "Marcus": 9183,
    " outrage": 9184,
    " folds": 9185,
    " orb": 9186,
    " offences": 9187,
    " judicious": 9188,
    " Stand": 9189,
    " Aufidiuses": 9190,
    "Insol": 9191,
    "Insolent": 9192,
    " villain": 9193,
    "Kill": 9194,
    "Hold": 9195,
    " whereat": 9196,
    "Tread": 9197,
    " Masters": 9198,
    "Provoked": 9199,
    "Myself": 9200,
    " heaviest": 9201,
    " regarded": 9202,
    " corse": 9203,
    " herald": 9204,
    " urn": 9205,
    " impatience": 9206,
    "Takes": 9207,
    " mournfully": 9208,
    "Trail": 9209,
    " Though": 9210,
    " widow": 9211,
    " unchild": 9212,
    " unchilded": 9213,
    " bewail": 9214,
    " Ass": 9215,
    " Assist": 9216,
    "GLO": 9217,
    "GLOUC": 9218,
    "GLOUCEST": 9219,
    "GLOUCESTER": 9220,
    " winter": 9221,
    " discontent": 9222,
    " lour": 9223,
    " ocean": 9224,
    " buried": 9225,
    " victorious": 9226,
    " wreaths": 9227,
    " bruised": 9228,
    " monuments": 9229,
    " alarums": 9230,
    " meetings": 9231,
    " dreadful": 9232,
    " marches": 9233,
    " delightful": 9234,
    " measures": 9235,
    "Grim": 9236,
    "vis": 9237,
    "visaged": 9238,
    " wrinkled": 9239,
    " front": 9240,
    " instead": 9241,
    " mounting": 9242,
    " barded": 9243,
    " steeds": 9244,
    " capers": 9245,
    " nimbly": 9246,
    " lascivious": 9247,
    " lute": 9248,
    " shaped": 9249,
    " sportive": 9250,
    " amorous": 9251,
    "glass": 9252,
    " majesty": 9253,
    " strut": 9254,
    " ambling": 9255,
    " curtail": 9256,
    " proportion": 9257,
    "Cheat": 9258,
    "Cheated": 9259,
    " feature": 9260,
    " dissembling": 9261,
    "Defor": 9262,
    "Deformed": 9263,
    " unfinish": 9264,
    " breathing": 9265,
    " lamely": 9266,
    " unfash": 9267,
    " unfashion": 9268,
    " unfashionable": 9269,
    " bark": 9270,
    " halt": 9271,
    " piping": 9272,
    " spy": 9273,
    " descant": 9274,
    " deformity": 9275,
    "spoken": 9276,
    "Plots": 9277,
    " inductions": 9278,
    " prophecies": 9279,
    " lib": 9280,
    " libels": 9281,
    " dreams": 9282,
    " Clarence": 9283,
    " King": 9284,
    " Edward": 9285,
    " treacherous": 9286,
    " closely": 9287,
    " mew": 9288,
    " prophecy": 9289,
    " heirs": 9290,
    " murderer": 9291,
    "Dive": 9292,
    "Clarence": 9293,
    "Brother": 9294,
    " armed": 9295,
    " waits": 9296,
    "CLARENCE": 9297,
    "Tend": 9298,
    "Tendering": 9299,
    " appointed": 9300,
    " Tower": 9301,
    " Ge": 9302,
    " George": 9303,
    "Alack": 9304,
    " commit": 9305,
    " godfathers": 9306,
    " belike": 9307,
    "christ": 9308,
    "christen": 9309,
    "Yea": 9310,
    " Richard": 9311,
    " heark": 9312,
    " hearkens": 9313,
    " plucks": 9314,
    " wizard": 9315,
    " disinherited": 9316,
    " begins": 9317,
    " toys": 9318,
    " highness": 9319,
    " sends": 9320,
    " Grey": 9321,
    " tempers": 9322,
    "Anth": 9323,
    "Anthony": 9324,
    " Woodville": 9325,
    " Hast": 9326,
    " Hastings": 9327,
    " kindred": 9328,
    "wal": 9329,
    "walking": 9330,
    " heral": 9331,
    " heralds": 9332,
    " trudge": 9333,
    " betwixt": 9334,
    " Mistress": 9335,
    " Shore": 9336,
    "Heard": 9337,
    " suppliant": 9338,
    "Lord": 9339,
    " hastings": 9340,
    " delivery": 9341,
    "Humb": 9342,
    "Humbly": 9343,
    " complaining": 9344,
    "Got": 9345,
    " chamberlain": 9346,
    " livery": 9347,
    "erworn": 9348,
    " dubb": 9349,
    " gentlewomen": 9350,
    " mighty": 9351,
    " gossips": 9352,
    " monarchy": 9353,
    "BRAK": 9354,
    "BRAKEN": 9355,
    "BRAKENBURY": 9356,
    " straitly": 9357,
    " conference": 9358,
    " soever": 9359,
    " Bra": 9360,
    " Braken": 9361,
    " Brakenbury": 9362,
    " cherry": 9363,
    " bonny": 9364,
    "folks": 9365,
    "Naught": 9366,
    " excepting": 9367,
    " secretly": 9368,
    "Forbear": 9369,
    " duke": 9370,
    " abjects": 9371,
    " enfranchise": 9372,
    "Meantime": 9373,
    " brotherhood": 9374,
    "Touches": 9375,
    " deeper": 9376,
    " pleaseth": 9377,
    " imprisonment": 9378,
    " perforce": 9379,
    "Simple": 9380,
    "HASTINGS": 9381,
    " lordship": 9382,
    " prisoners": 9383,
    " buzzards": 9384,
    " prey": 9385,
    " abroad": 9386,
    " sickly": 9387,
    " melanch": 9388,
    " melancholy": 9389,
    " physicians": 9390,
    " mightily": 9391,
    " Saint": 9392,
    " overmuch": 9393,
    " grievous": 9394,
    "horse": 9395,
    " weighty": 9396,
    " arguments": 9397,
    " bust": 9398,
    " bustle": 9399,
    " youngest": 9400,
    " readiest": 9401,
    " wench": 9402,
    " amends": 9403,
    " close": 9404,
    " marrying": 9405,
    " breathes": 9406,
    " reigns": 9407,
    "LADY": 9408,
    " AN": 9409,
    " ANN": 9410,
    " ANNE": 9411,
    " shrouded": 9412,
    " hearse": 9413,
    " obsequiously": 9414,
    " untimely": 9415,
    " Lanc": 9416,
    " Lancaster": 9417,
    "Poor": 9418,
    " key": 9419,
    "cold": 9420,
    " figure": 9421,
    "Pale": 9422,
    " ashes": 9423,
    " bloodless": 9424,
    " remnant": 9425,
    " invocate": 9426,
    " lamentations": 9427,
    " Poor": 9428,
    " Anne": 9429,
    " slaughter": 9430,
    "Stabb": 9431,
    " selfsame": 9432,
    " pour": 9433,
    " helpless": 9434,
    " balm": 9435,
    "Cursed": 9436,
    " fatal": 9437,
    " holes": 9438,
    " direful": 9439,
    " betide": 9440,
    " adders": 9441,
    " spid": 9442,
    " spiders": 9443,
    " toads": 9444,
    " creeping": 9445,
    " abort": 9446,
    " abortive": 9447,
    "Prodig": 9448,
    "Prodigious": 9449,
    " ugly": 9450,
    " hopeful": 9451,
    " unhappiness": 9452,
    " miserable": 9453,
    " Cher": 9454,
    " Cherts": 9455,
    " Chertsey": 9456,
    "Taken": 9457,
    " interred": 9458,
    "Rest": 9459,
    " whiles": 9460,
    " Henry": 9461,
    " magician": 9462,
    " conjures": 9463,
    " fiend": 9464,
    " devot": 9465,
    " devoted": 9466,
    "Vill": 9467,
    "Villains": 9468,
    " disob": 9469,
    " disobeys": 9470,
    "Gentleman": 9471,
    "Unman": 9472,
    "Unmanner": 9473,
    "Advance": 9474,
    " halbert": 9475,
    " higher": 9476,
    " boldness": 9477,
    " afra": 9478,
    " afraid": 9479,
    "Av": 9480,
    "Avaunt": 9481,
    " saint": 9482,
    " curst": 9483,
    " exclaims": 9484,
    " heinous": 9485,
    " pattern": 9486,
    " butcheries": 9487,
    "Open": 9488,
    " congeal": 9489,
    " afresh": 9490,
    " Blush": 9491,
    " lump": 9492,
    " exhales": 9493,
    " empty": 9494,
    " dw": 9495,
    " dwells": 9496,
    " inhum": 9497,
    " inhuman": 9498,
    "Provokes": 9499,
    " deluge": 9500,
    " madest": 9501,
    " lightn": 9502,
    " lightning": 9503,
    "murderer": 9504,
    " gape": 9505,
    " butchered": 9506,
    "Lady": 9507,
    " rules": 9508,
    " renders": 9509,
    " blessings": 9510,
    "Villain": 9511,
    " wonderful": 9512,
    " devils": 9513,
    " angels": 9514,
    "Vouch": 9515,
    "Vouchsafe": 9516,
    " perfection": 9517,
    " supposed": 9518,
    "evils": 9519,
    " circumstance": 9520,
    " acquit": 9521,
    " defused": 9522,
    " evils": 9523,
    " cursed": 9524,
    "Fairer": 9525,
    "Fouler": 9526,
    " despairing": 9527,
    " excused": 9528,
    " didst": 9529,
    " devilish": 9530,
    " alive": 9531,
    " Queen": 9532,
    " Margaret": 9533,
    " murderous": 9534,
    " falch": 9535,
    " falchion": 9536,
    " brothers": 9537,
    " provoked": 9538,
    " slanderous": 9539,
    " guiltless": 9540,
    " shoulders": 9541,
    " dreamt": 9542,
    "Didst": 9543,
    "Dost": 9544,
    " hedgeh": 9545,
    " hedgehog": 9546,
    " damned": 9547,
    " wick": 9548,
    " wicked": 9549,
    " fitter": 9550,
    " unfit": 9551,
    " dungeon": 9552,
    "chamber": 9553,
    " keen": 9554,
    " somewhat": 9555,
    " slower": 9556,
    " method": 9557,
    " causer": 9558,
    " timeless": 9559,
    " Plantagenets": 9560,
    " blameful": 9561,
    " executioner": 9562,
    " accursed": 9563,
    " effect": 9564,
    " beauty": 9565,
    " haunt": 9566,
    " homic": 9567,
    " homicide": 9568,
    " nails": 9569,
    " wreck": 9570,
    " blemish": 9571,
    " cheered": 9572,
    "Black": 9573,
    "ershade": 9574,
    "Curse": 9575,
    " creature": 9576,
    " revenged": 9577,
    " loveth": 9578,
    " reasonable": 9579,
    " bereft": 9580,
    " breathe": 9581,
    "Plantagen": 9582,
    "Plantagenet": 9583,
    " fouler": 9584,
    " toad": 9585,
    " basilisks": 9586,
    "Shamed": 9587,
    " remorseful": 9588,
    " wept": 9589,
    " piteous": 9590,
    " moan": 9591,
    " Rut": 9592,
    " Rutland": 9593,
    " Clifford": 9594,
    " shook": 9595,
    "Told": 9596,
    " story": 9597,
    " pause": 9598,
    " standers": 9599,
    " wet": 9600,
    " trees": 9601,
    " bedash": 9602,
    " manly": 9603,
    " sorrows": 9604,
    " exhale": 9605,
    " smoothing": 9606,
    " proposed": 9607,
    " sues": 9608,
    " kissing": 9609,
    "pointed": 9610,
    " adore": 9611,
    " adoreth": 9612,
    " stroke": 9613,
    " humbly": 9614,
    " stabb": 9615,
    " heavenly": 9616,
    "Arise": 9617,
    " dissembler": 9618,
    " accessary": 9619,
    " figured": 9620,
    " ring": 9621,
    " encompasseth": 9622,
    " enclos": 9623,
    " encloseth": 9624,
    "Wear": 9625,
    " happiness": 9626,
    " designs": 9627,
    " mourner": 9628,
    " Cros": 9629,
    " Crosby": 9630,
    " Place": 9631,
    " solemnly": 9632,
    " interr": 9633,
    " monast": 9634,
    " monastery": 9635,
    " repentant": 9636,
    " expedient": 9637,
    "Grant": 9638,
    " boon": 9639,
    " joys": 9640,
    " penitent": 9641,
    "Tress": 9642,
    "Tressel": 9643,
    " Ber": 9644,
    " Berke": 9645,
    " Berkeley": 9646,
    "Imagine": 9647,
    "Sirs": 9648,
    "GENT": 9649,
    "GENTLE": 9650,
    "GENTLEMEN": 9651,
    " White": 9652,
    "Friars": 9653,
    " coining": 9654,
    " humour": 9655,
    " bars": 9656,
    "against": 9657,
    " prince": 9658,
    "Edward": 9659,
    " months": 9660,
    " Tew": 9661,
    " Tewks": 9662,
    " Tewksbury": 9663,
    " sweeter": 9664,
    "Framed": 9665,
    " prodigality": 9666,
    " afford": 9667,
    " cropp": 9668,
    " golden": 9669,
    " prime": 9670,
    " wo": 9671,
    " woful": 9672,
    " equals": 9673,
    " moiety": 9674,
    " unshapen": 9675,
    " duked": 9676,
    " dukedom": 9677,
    " beggarly": 9678,
    " denier": 9679,
    " mistake": 9680,
    " score": 9681,
    " tailors": 9682,
    " study": 9683,
    " fashions": 9684,
    " maintain": 9685,
    " yon": 9686,
    " lamenting": 9687,
    "Shine": 9688,
    " bought": 9689,
    "RIVERS": 9690,
    " accustom": 9691,
    "GREY": 9692,
    "QUE": 9693,
    "QUEEN": 9694,
    " ELI": 9695,
    " ELIZ": 9696,
    " ELIZAB": 9697,
    " ELIZABET": 9698,
    " ELIZABETH": 9699,
    " includes": 9700,
    " comforter": 9701,
    "Oh": 9702,
    " minor": 9703,
    " minority": 9704,
    " Gloucester": 9705,
    " concluded": 9706,
    " protector": 9707,
    " miscarry": 9708,
    " Buckingham": 9709,
    " Der": 9710,
    " Derby": 9711,
    "BUCKINGHAM": 9712,
    "DER": 9713,
    "DERBY": 9714,
    " Count": 9715,
    " Countess": 9716,
    " Richmond": 9717,
    " notwith": 9718,
    " notwithstanding": 9719,
    " arrog": 9720,
    " arrogance": 9721,
    " envious": 9722,
    " slanders": 9723,
    " wayward": 9724,
    " sickness": 9725,
    " grounded": 9726,
    " Duke": 9727,
    " visiting": 9728,
    " likel": 9729,
    " likeli": 9730,
    " likelihood": 9731,
    " amendment": 9732,
    " cheerfully": 9733,
    " aton": 9734,
    " atonement": 9735,
    "Betwixt": 9736,
    " rumours": 9737,
    "Smile": 9738,
    "Duck": 9739,
    " French": 9740,
    " nods": 9741,
    " apish": 9742,
    " rancorous": 9743,
    " simple": 9744,
    " silken": 9745,
    " sly": 9746,
    " Jacks": 9747,
    " honesty": 9748,
    " injured": 9749,
    " lew": 9750,
    " lewd": 9751,
    " complaints": 9752,
    " suitor": 9753,
    "Aiming": 9754,
    " wrens": 9755,
    " perch": 9756,
    " bec": 9757,
    " became": 9758,
    " meaning": 9759,
    "Glouc": 9760,
    "Gloucester": 9761,
    " advancement": 9762,
    " grants": 9763,
    " disgraced": 9764,
    " promot": 9765,
    " promotions": 9766,
    " ennoble": 9767,
    " careful": 9768,
    " contented": 9769,
    " incense": 9770,
    " advocate": 9771,
    " shameful": 9772,
    "Falsely": 9773,
    " suspects": 9774,
    " Rivers": 9775,
    " denying": 9776,
    " preferments": 9777,
    " aiding": 9778,
    " deser": 9779,
    " deserts": 9780,
    " She": 9781,
    " bach": 9782,
    " bachel": 9783,
    " bachelor": 9784,
    " handsome": 9785,
    " stripling": 9786,
    " grandam": 9787,
    " worser": 9788,
    " upbra": 9789,
    " upbraidings": 9790,
    " scoff": 9791,
    " scoffs": 9792,
    " endured": 9793,
    " taunted": 9794,
    " England": 9795,
    " MARG": 9796,
    " MARGAR": 9797,
    " MARGARET": 9798,
    " lessen": 9799,
    " due": 9800,
    " avouch": 9801,
    " adventure": 9802,
    " pains": 9803,
    " quite": 9804,
    " slewest": 9805,
    " weeder": 9806,
    " liberal": 9807,
    " rewarder": 9808,
    " royalize": 9809,
    " spilt": 9810,
    " factious": 9811,
    " Alban": 9812,
    "Withal": 9813,
    " forsake": 9814,
    " forswore": 9815,
    " Jesu": 9816,
    " pitiful": 9817,
    "foolish": 9818,
    "Hie": 9819,
    " cac": 9820,
    " cacod": 9821,
    " cacodem": 9822,
    " cacodemon": 9823,
    " kingdom": 9824,
    " busy": 9825,
    " pedlar": 9826,
    "Far": 9827,
    " suppose": 9828,
    " thereof": 9829,
    " enjoys": 9830,
    " altogether": 9831,
    " joyless": 9832,
    " longer": 9833,
    " wrang": 9834,
    " wrangling": 9835,
    " pirates": 9836,
    " sharing": 9837,
    " trembles": 9838,
    " deposed": 9839,
    " quake": 9840,
    " rebels": 9841,
    " makest": 9842,
    " abode": 9843,
    " owest": 9844,
    " alle": 9845,
    " alleg": 9846,
    " allegiance": 9847,
    " usurp": 9848,
    " scorns": 9849,
    " drew": 9850,
    " gav": 9851,
    " gavest": 9852,
    " clout": 9853,
    "Steep": 9854,
    " faultless": 9855,
    " bitterness": 9856,
    "Denoun": 9857,
    "Denounced": 9858,
    " plagued": 9859,
    " innocent": 9860,
    " foulest": 9861,
    " babe": 9862,
    " mercil": 9863,
    " merciless": 9864,
    "Tyrants": 9865,
    " reported": 9866,
    "DORSET": 9867,
    " prophes": 9868,
    " prophesied": 9869,
    "Northumberland": 9870,
    " snarling": 9871,
    " lovely": 9872,
    " pee": 9873,
    " peevish": 9874,
    " brat": 9875,
    " Prince": 9876,
    " Wales": 9877,
    "Die": 9878,
    " violence": 9879,
    "Outlive": 9880,
    "Deck": 9881,
    " stall": 9882,
    " lengthen": 9883,
    "Rivers": 9884,
    " Dorset": 9885,
    " daggers": 9886,
    " unlook": 9887,
    " hateful": 9888,
    " wither": 9889,
    " hag": 9890,
    "Exceeding": 9891,
    " sins": 9892,
    " hurl": 9893,
    " indignation": 9894,
    " troubler": 9895,
    " begn": 9896,
    " begnaw": 9897,
    " livest": 9898,
    " tormenting": 9899,
    "Affrights": 9900,
    " elvish": 9901,
    " rooting": 9902,
    " nativity": 9903,
    " loathed": 9904,
    " detested": 9905,
    "Margaret": 9906,
    "Richard": 9907,
    " reply": 9908,
    " peri": 9909,
    " period": 9910,
    " breathed": 9911,
    " flourish": 9912,
    " sugar": 9913,
    " bottled": 9914,
    " spider": 9915,
    " web": 9916,
    " ensn": 9917,
    " ensnar": 9918,
    " ensnareth": 9919,
    " bunchback": 9920,
    "boding": 9921,
    " fr": 9922,
    " frant": 9923,
    " frantic": 9924,
    " taught": 9925,
    "Dispute": 9926,
    " lunatic": 9927,
    " marqu": 9928,
    " marquess": 9929,
    " malap": 9930,
    " malapert": 9931,
    "new": 9932,
    " blasts": 9933,
    " toucheth": 9934,
    " aery": 9935,
    " buildeth": 9936,
    " cedar": 9937,
    " dallies": 9938,
    " shade": 9939,
    " alas": 9940,
    "shining": 9941,
    " beams": 9942,
    " cloudy": 9943,
    " eternal": 9944,
    " darkness": 9945,
    " folded": 9946,
    " nest": 9947,
    "Ur": 9948,
    "Urge": 9949,
    "Unchar": 9950,
    "Uncharit": 9951,
    "Uncharitably": 9952,
    " dealt": 9953,
    " shamefully": 9954,
    " hopes": 9955,
    " league": 9956,
    " amity": 9957,
    " befal": 9958,
    " spotted": 9959,
    " ascend": 9960,
    "sle": 9961,
    "sleeping": 9962,
    " fawns": 9963,
    " bites": 9964,
    " tooth": 9965,
    " rankle": 9966,
    " soothe": 9967,
    " split": 9968,
    " prophetess": 9969,
    " somebod": 9970,
    " somebody": 9971,
    " repaid": 9972,
    " fatting": 9973,
    " Christian": 9974,
    " conclusion": 9975,
    " scathe": 9976,
    "CAT": 9977,
    "CATES": 9978,
    "CATESBY": 9979,
    "Catesby": 9980,
    " mischiefs": 9981,
    " abroach": 9982,
    " beweep": 9983,
    " gulls": 9984,
    "Nam": 9985,
    "Namely": 9986,
    " allies": 9987,
    " Vaughan": 9988,
    " scri": 9989,
    " scripture": 9990,
    " clothe": 9991,
    " villany": 9992,
    " stolen": 9993,
    " executioners": 9994,
    " hardy": 9995,
    " mates": 9996,
    " Murderer": 9997,
    " obd": 9998,
    " obdur": 9999,
    " obdurate": 10000,
    " perhaps": 10001,
    "Talkers": 10002,
    " doers": 10003,
    " millst": 10004,
    " millstones": 10005,
    " heavily": 10006,
    " today": 10007,
    " gh": 10008,
    " ghast": 10009,
    " ghastly": 10010,
    " faithful": 10011,
    " dismal": 10012,
    "Methoughts": 10013,
    " broken": 10014,
    " embark": 10015,
    " Burg": 10016,
    " Burgund": 10017,
    " Burgundy": 10018,
    " cab": 10019,
    " cabin": 10020,
    " hatches": 10021,
    " cited": 10022,
    " befall": 10023,
    " As": 10024,
    " paced": 10025,
    " footing": 10026,
    "Methought": 10027,
    " stumbled": 10028,
    "Stru": 10029,
    "Struck": 10030,
    " overboard": 10031,
    " tumbling": 10032,
    " billows": 10033,
    " drown": 10034,
    " wrecks": 10035,
    "Ten": 10036,
    " fishes": 10037,
    "Wedges": 10038,
    " anchors": 10039,
    " pearl": 10040,
    "Inestim": 10041,
    "Inestimable": 10042,
    " unvalued": 10043,
    " jewels": 10044,
    " skulls": 10045,
    " inhabit": 10046,
    " reflecting": 10047,
    " gems": 10048,
    " slimy": 10049,
    " secrets": 10050,
    " strive": 10051,
    "Kept": 10052,
    " wand": 10053,
    " wandering": 10054,
    " bulk": 10055,
    " burst": 10056,
    " belch": 10057,
    "Awaked": 10058,
    " agony": 10059,
    " tempest": 10060,
    " fer": 10061,
    " ferry": 10062,
    " ferryman": 10063,
    " poets": 10064,
    " stranger": 10065,
    " aloud": 10066,
    " perjury": 10067,
    " vanish": 10068,
    "Dabb": 10069,
    "Dabbled": 10070,
    " squeak": 10071,
    " fleeting": 10072,
    " perjured": 10073,
    " Furies": 10074,
    " torments": 10075,
    " methoughts": 10076,
    " legion": 10077,
    "Environ": 10078,
    " howled": 10079,
    " hideous": 10080,
    " marvel": 10081,
    " affrighted": 10082,
    " evidence": 10083,
    " requites": 10084,
    " appease": 10085,
    " avenged": 10086,
    " misdeeds": 10087,
    " execute": 10088,
    " keeper": 10089,
    " fain": 10090,
    "Sorrow": 10091,
    " breaks": 10092,
    " seasons": 10093,
    " reposing": 10094,
    "tide": 10095,
    "Princes": 10096,
    " tides": 10097,
    " glories": 10098,
    " inward": 10099,
    " unfelt": 10100,
    " imagination": 10101,
    " restless": 10102,
    " diff": 10103,
    " differs": 10104,
    " Show": 10105,
    " meant": 10106,
    " hereby": 10107,
    " keys": 10108,
    " signify": 10109,
    " resign": 10110,
    " sleeps": 10111,
    " wakes": 10112,
    " wake": 10113,
    " stabbed": 10114,
    " sleeping": 10115,
    " urging": 10116,
    "judg": 10117,
    "judgment": 10118,
    "damned": 10119,
    " resolute": 10120,
[...]
